{
  "version": "1.0",
  "truncation": null,
  "padding": null,
  "added_tokens": [
    {
      "id": 0,
      "content": "<unk>",
      "single_word": false,
      "lstrip": false,
      "rstrip": false,
      "normalized": true,
      "special": true
    },
    {
      "id": 1,
      "content": "<|startoftext|>",
      "single_word": false,
      "lstrip": false,
      "rstrip": false,
      "normalized": true,
      "special": true
    },
    {
      "id": 2,
      "content": "<|endoftext|>",
      "single_word": false,
      "lstrip": false,
      "rstrip": false,
      "normalized": true,
      "special": true
    },
    {
      "id": 3,
      "content": "<|Human|>",
      "single_word": false,
      "lstrip": false,
      "rstrip": false,
      "normalized": false,
      "special": true
    },
    {
      "id": 4,
      "content": "<|Assistant|>",
      "single_word": false,
      "lstrip": false,
      "rstrip": false,
      "normalized": false,
      "special": true
    },
    {
      "id": 5,
      "content": "<|System|>",
      "single_word": false,
      "lstrip": false,
      "rstrip": false,
      "normalized": false,
      "special": true
    },
    {
      "id": 6,
      "content": "<|im_start|>",
      "single_word": false,
      "lstrip": false,
      "rstrip": false,
      "normalized": false,
      "special": false
    },
    {
      "id": 7,
      "content": "<|im_end|>",
      "single_word": false,
      "lstrip": false,
      "rstrip": false,
      "normalized": false,
      "special": true
    },
    {
      "id": 8,
      "content": "<|im_sep|>",
      "single_word": false,
      "lstrip": false,
      "rstrip": false,
      "normalized": false,
      "special": false
    },
    {
      "id": 9,
      "content": "<|reserved003|>",
      "single_word": false,
      "lstrip": false,
      "rstrip": false,
      "normalized": false,
      "special": true
    },
    {
      "id": 10,
      "content": "<|reserved004|>",
      "single_word": false,
      "lstrip": false,
      "rstrip": false,
      "normalized": false,
      "special": true
    },
    {
      "id": 11,
      "content": "<|reserved005|>",
      "single_word": false,
      "lstrip": false,
      "rstrip": false,
      "normalized": false,
      "special": true
    },
    {
      "id": 12,
      "content": "<|reserved006|>",
      "single_word": false,
      "lstrip": false,
      "rstrip": false,
      "normalized": false,
      "special": true
    },
    {
      "id": 13,
      "content": "<|reserved007|>",
      "single_word": false,
      "lstrip": false,
      "rstrip": false,
      "normalized": false,
      "special": true
    },
    {
      "id": 14,
      "content": "<fim_prefix>",
      "single_word": false,
      "lstrip": false,
      "rstrip": false,
      "normalized": false,
      "special": false
    },
    {
      "id": 15,
      "content": "<fim_middle>",
      "single_word": false,
      "lstrip": false,
      "rstrip": false,
      "normalized": false,
      "special": false
    },
    {
      "id": 16,
      "content": "<fim_suffix>",
      "single_word": false,
      "lstrip": false,
      "rstrip": false,
      "normalized": false,
      "special": false
    },
    {
      "id": 17,
      "content": "<fim_pad>",
      "single_word": false,
      "lstrip": false,
      "rstrip": false,
      "normalized": false,
      "special": false
    },
    {
      "id": 18,
      "content": "<filename>",
      "single_word": false,
      "lstrip": false,
      "rstrip": false,
      "normalized": false,
      "special": false
    },
    {
      "id": 19,
      "content": "<gh_stars>",
      "single_word": false,
      "lstrip": false,
      "rstrip": false,
      "normalized": false,
      "special": false
    },
    {
      "id": 20,
      "content": "<issue_start>",
      "single_word": false,
      "lstrip": false,
      "rstrip": false,
      "normalized": false,
      "special": false
    },
    {
      "id": 21,
      "content": "<issue_comment>",
      "single_word": false,
      "lstrip": false,
      "rstrip": false,
      "normalized": false,
      "special": false
    },
    {
      "id": 22,
      "content": "<issue_closed>",
      "single_word": false,
      "lstrip": false,
      "rstrip": false,
      "normalized": false,
      "special": false
    },
    {
      "id": 23,
      "content": "<jupyter_start>",
      "single_word": false,
      "lstrip": false,
      "rstrip": false,
      "normalized": false,
      "special": false
    },
    {
      "id": 24,
      "content": "<jupyter_text>",
      "single_word": false,
      "lstrip": false,
      "rstrip": false,
      "normalized": false,
      "special": false
    },
    {
      "id": 25,
      "content": "<jupyter_code>",
      "single_word": false,
      "lstrip": false,
      "rstrip": false,
      "normalized": false,
      "special": false
    },
    {
      "id": 26,
      "content": "<jupyter_output>",
      "single_word": false,
      "lstrip": false,
      "rstrip": false,
      "normalized": false,
      "special": false
    },
    {
      "id": 27,
      "content": "<empty_output>",
      "single_word": false,
      "lstrip": false,
      "rstrip": false,
      "normalized": false,
      "special": false
    },
    {
      "id": 28,
      "content": "<commit_before>",
      "single_word": false,
      "lstrip": false,
      "rstrip": false,
      "normalized": false,
      "special": false
    },
    {
      "id": 29,
      "content": "<commit_msg>",
      "single_word": false,
      "lstrip": false,
      "rstrip": false,
      "normalized": false,
      "special": false
    },
    {
      "id": 30,
      "content": "<commit_after>",
      "single_word": false,
      "lstrip": false,
      "rstrip": false,
      "normalized": false,
      "special": false
    },
    {
      "id": 31,
      "content": "<reponame>",
      "single_word": false,
      "lstrip": false,
      "rstrip": false,
      "normalized": false,
      "special": false
    },
    {
      "id": 32,
      "content": "<h1>",
      "single_word": false,
      "lstrip": false,
      "rstrip": false,
      "normalized": false,
      "special": false
    },
    {
      "id": 33,
      "content": "<h1/>",
      "single_word": false,
      "lstrip": false,
      "rstrip": false,
      "normalized": false,
      "special": false
    },
    {
      "id": 34,
      "content": "</h1>",
      "single_word": false,
      "lstrip": false,
      "rstrip": false,
      "normalized": false,
      "special": false
    },
    {
      "id": 35,
      "content": "<h2>",
      "single_word": false,
      "lstrip": false,
      "rstrip": false,
      "normalized": false,
      "special": false
    },
    {
      "id": 36,
      "content": "<h2/>",
      "single_word": false,
      "lstrip": false,
      "rstrip": false,
      "normalized": false,
      "special": false
    },
    {
      "id": 37,
      "content": "</h2>",
      "single_word": false,
      "lstrip": false,
      "rstrip": false,
      "normalized": false,
      "special": false
    },
    {
      "id": 38,
      "content": "<h3>",
      "single_word": false,
      "lstrip": false,
      "rstrip": false,
      "normalized": false,
      "special": false
    },
    {
      "id": 39,
      "content": "<h3/>",
      "single_word": false,
      "lstrip": false,
      "rstrip": false,
      "normalized": false,
      "special": false
    },
    {
      "id": 40,
      "content": "</h3>",
      "single_word": false,
      "lstrip": false,
      "rstrip": false,
      "normalized": false,
      "special": false
    },
    {
      "id": 41,
      "content": "<h4>",
      "single_word": false,
      "lstrip": false,
      "rstrip": false,
      "normalized": false,
      "special": false
    },
    {
      "id": 42,
      "content": "<h4/>",
      "single_word": false,
      "lstrip": false,
      "rstrip": false,
      "normalized": false,
      "special": false
    },
    {
      "id": 43,
      "content": "</h4>",
      "single_word": false,
      "lstrip": false,
      "rstrip": false,
      "normalized": false,
      "special": false
    },
    {
      "id": 44,
      "content": "<h5>",
      "single_word": false,
      "lstrip": false,
      "rstrip": false,
      "normalized": false,
      "special": false
    },
    {
      "id": 45,
      "content": "<h5/>",
      "single_word": false,
      "lstrip": false,
      "rstrip": false,
      "normalized": false,
      "special": false
    },
    {
      "id": 46,
      "content": "</h5>",
      "single_word": false,
      "lstrip": false,
      "rstrip": false,
      "normalized": false,
      "special": false
    },
    {
      "id": 47,
      "content": "<br>",
      "single_word": false,
      "lstrip": false,
      "rstrip": false,
      "normalized": false,
      "special": false
    },
    {
      "id": 48,
      "content": "<br/>",
      "single_word": false,
      "lstrip": false,
      "rstrip": false,
      "normalized": false,
      "special": false
    },
    {
      "id": 49,
      "content": "</br>",
      "single_word": false,
      "lstrip": false,
      "rstrip": false,
      "normalized": false,
      "special": false
    },
    {
      "id": 50,
      "content": "<strong>",
      "single_word": false,
      "lstrip": false,
      "rstrip": false,
      "normalized": false,
      "special": false
    },
    {
      "id": 51,
      "content": "<strong/>",
      "single_word": false,
      "lstrip": false,
      "rstrip": false,
      "normalized": false,
      "special": false
    },
    {
      "id": 52,
      "content": "</strong>",
      "single_word": false,
      "lstrip": false,
      "rstrip": false,
      "normalized": false,
      "special": false
    },
    {
      "id": 53,
      "content": "<p>",
      "single_word": false,
      "lstrip": false,
      "rstrip": false,
      "normalized": false,
      "special": false
    },
    {
      "id": 54,
      "content": "<p/>",
      "single_word": false,
      "lstrip": false,
      "rstrip": false,
      "normalized": false,
      "special": false
    },
    {
      "id": 55,
      "content": "</p>",
      "single_word": false,
      "lstrip": false,
      "rstrip": false,
      "normalized": false,
      "special": false
    },
    {
      "id": 56,
      "content": "<table>",
      "single_word": false,
      "lstrip": false,
      "rstrip": false,
      "normalized": false,
      "special": false
    },
    {
      "id": 57,
      "content": "<table/>",
      "single_word": false,
      "lstrip": false,
      "rstrip": false,
      "normalized": false,
      "special": false
    },
    {
      "id": 58,
      "content": "</table>",
      "single_word": false,
      "lstrip": false,
      "rstrip": false,
      "normalized": false,
      "special": false
    },
    {
      "id": 59,
      "content": "<li>",
      "single_word": false,
      "lstrip": false,
      "rstrip": false,
      "normalized": false,
      "special": false
    },
    {
      "id": 60,
      "content": "<li/>",
      "single_word": false,
      "lstrip": false,
      "rstrip": false,
      "normalized": false,
      "special": false
    },
    {
      "id": 61,
      "content": "</li>",
      "single_word": false,
      "lstrip": false,
      "rstrip": false,
      "normalized": false,
      "special": false
    },
    {
      "id": 62,
      "content": "<tr>",
      "single_word": false,
      "lstrip": false,
      "rstrip": false,
      "normalized": false,
      "special": false
    },
    {
      "id": 63,
      "content": "<tr/>",
      "single_word": false,
      "lstrip": false,
      "rstrip": false,
      "normalized": false,
      "special": false
    },
    {
      "id": 64,
      "content": "</tr>",
      "single_word": false,
      "lstrip": false,
      "rstrip": false,
      "normalized": false,
      "special": false
    },
    {
      "id": 65,
      "content": "<tbody>",
      "single_word": false,
      "lstrip": false,
      "rstrip": false,
      "normalized": false,
      "special": false
    },
    {
      "id": 66,
      "content": "<tbody/>",
      "single_word": false,
      "lstrip": false,
      "rstrip": false,
      "normalized": false,
      "special": false
    },
    {
      "id": 67,
      "content": "</tbody>",
      "single_word": false,
      "lstrip": false,
      "rstrip": false,
      "normalized": false,
      "special": false
    },
    {
      "id": 68,
      "content": "<img>",
      "single_word": false,
      "lstrip": false,
      "rstrip": false,
      "normalized": false,
      "special": false
    },
    {
      "id": 69,
      "content": "<img/>",
      "single_word": false,
      "lstrip": false,
      "rstrip": false,
      "normalized": false,
      "special": false
    },
    {
      "id": 70,
      "content": "</img>",
      "single_word": false,
      "lstrip": false,
      "rstrip": false,
      "normalized": false,
      "special": false
    },
    {
      "id": 71,
      "content": "<b>",
      "single_word": false,
      "lstrip": false,
      "rstrip": false,
      "normalized": false,
      "special": false
    },
    {
      "id": 72,
      "content": "<b/>",
      "single_word": false,
      "lstrip": false,
      "rstrip": false,
      "normalized": false,
      "special": false
    },
    {
      "id": 73,
      "content": "</b>",
      "single_word": false,
      "lstrip": false,
      "rstrip": false,
      "normalized": false,
      "special": false
    },
    {
      "id": 74,
      "content": "<td>",
      "single_word": false,
      "lstrip": false,
      "rstrip": false,
      "normalized": false,
      "special": false
    },
    {
      "id": 75,
      "content": "<td/>",
      "single_word": false,
      "lstrip": false,
      "rstrip": false,
      "normalized": false,
      "special": false
    },
    {
      "id": 76,
      "content": "</td>",
      "single_word": false,
      "lstrip": false,
      "rstrip": false,
      "normalized": false,
      "special": false
    },
    {
      "id": 77,
      "content": "0",
      "single_word": false,
      "lstrip": false,
      "rstrip": false,
      "normalized": false,
      "special": false
    },
    {
      "id": 78,
      "content": "1",
      "single_word": false,
      "lstrip": false,
      "rstrip": false,
      "normalized": false,
      "special": false
    },
    {
      "id": 79,
      "content": "2",
      "single_word": false,
      "lstrip": false,
      "rstrip": false,
      "normalized": false,
      "special": false
    },
    {
      "id": 80,
      "content": "3",
      "single_word": false,
      "lstrip": false,
      "rstrip": false,
      "normalized": false,
      "special": false
    },
    {
      "id": 81,
      "content": "4",
      "single_word": false,
      "lstrip": false,
      "rstrip": false,
      "normalized": false,
      "special": false
    },
    {
      "id": 82,
      "content": "5",
      "single_word": false,
      "lstrip": false,
      "rstrip": false,
      "normalized": false,
      "special": false
    },
    {
      "id": 83,
      "content": "6",
      "single_word": false,
      "lstrip": false,
      "rstrip": false,
      "normalized": false,
      "special": false
    },
    {
      "id": 84,
      "content": "7",
      "single_word": false,
      "lstrip": false,
      "rstrip": false,
      "normalized": false,
      "special": false
    },
    {
      "id": 85,
      "content": "8",
      "single_word": false,
      "lstrip": false,
      "rstrip": false,
      "normalized": false,
      "special": false
    },
    {
      "id": 86,
      "content": "9",
      "single_word": false,
      "lstrip": false,
      "rstrip": false,
      "normalized": false,
      "special": false
    },
    {
      "id": 87,
      "content": "０",
      "single_word": false,
      "lstrip": false,
      "rstrip": false,
      "normalized": false,
      "special": false
    },
    {
      "id": 88,
      "content": "１",
      "single_word": false,
      "lstrip": false,
      "rstrip": false,
      "normalized": false,
      "special": false
    },
    {
      "id": 89,
      "content": "２",
      "single_word": false,
      "lstrip": false,
      "rstrip": false,
      "normalized": false,
      "special": false
    },
    {
      "id": 90,
      "content": "３",
      "single_word": false,
      "lstrip": false,
      "rstrip": false,
      "normalized": false,
      "special": false
    },
    {
      "id": 91,
      "content": "４",
      "single_word": false,
      "lstrip": false,
      "rstrip": false,
      "normalized": false,
      "special": false
    },
    {
      "id": 92,
      "content": "５",
      "single_word": false,
      "lstrip": false,
      "rstrip": false,
      "normalized": false,
      "special": false
    },
    {
      "id": 93,
      "content": "６",
      "single_word": false,
      "lstrip": false,
      "rstrip": false,
      "normalized": false,
      "special": false
    },
    {
      "id": 94,
      "content": "７",
      "single_word": false,
      "lstrip": false,
      "rstrip": false,
      "normalized": false,
      "special": false
    },
    {
      "id": 95,
      "content": "８",
      "single_word": false,
      "lstrip": false,
      "rstrip": false,
      "normalized": false,
      "special": false
    },
    {
      "id": 96,
      "content": "９",
      "single_word": false,
      "lstrip": false,
      "rstrip": false,
      "normalized": false,
      "special": false
    },
    {
      "id": 97,
      "content": ",",
      "single_word": false,
      "lstrip": false,
      "rstrip": false,
      "normalized": false,
      "special": false
    },
    {
      "id": 98,
      "content": ".",
      "single_word": false,
      "lstrip": false,
      "rstrip": false,
      "normalized": false,
      "special": false
    },
    {
      "id": 99,
      "content": "!",
      "single_word": false,
      "lstrip": false,
      "rstrip": false,
      "normalized": false,
      "special": false
    },
    {
      "id": 100,
      "content": "?",
      "single_word": false,
      "lstrip": false,
      "rstrip": false,
      "normalized": false,
      "special": false
    },
    {
      "id": 101,
      "content": "，",
      "single_word": false,
      "lstrip": false,
      "rstrip": false,
      "normalized": false,
      "special": false
    },
    {
      "id": 102,
      "content": "。",
      "single_word": false,
      "lstrip": false,
      "rstrip": false,
      "normalized": false,
      "special": false
    },
    {
      "id": 103,
      "content": "！",
      "single_word": false,
      "lstrip": false,
      "rstrip": false,
      "normalized": false,
      "special": false
    },
    {
      "id": 104,
      "content": "？",
      "single_word": false,
      "lstrip": false,
      "rstrip": false,
      "normalized": false,
      "special": false
    },
    {
      "id": 105,
      "content": "、",
      "single_word": false,
      "lstrip": false,
      "rstrip": false,
      "normalized": false,
      "special": false
    },
    {
      "id": 106,
      "content": "：",
      "single_word": false,
      "lstrip": false,
      "rstrip": false,
      "normalized": false,
      "special": false
    },
    {
      "id": 107,
      "content": "￥",
      "single_word": false,
      "lstrip": false,
      "rstrip": false,
      "normalized": false,
      "special": false
    },
    {
      "id": 108,
      "content": "《",
      "single_word": false,
      "lstrip": false,
      "rstrip": false,
      "normalized": false,
      "special": false
    },
    {
      "id": 109,
      "content": "》",
      "single_word": false,
      "lstrip": false,
      "rstrip": false,
      "normalized": false,
      "special": false
    },
    {
      "id": 110,
      "content": "【",
      "single_word": false,
      "lstrip": false,
      "rstrip": false,
      "normalized": false,
      "special": false
    },
    {
      "id": 111,
      "content": "】",
      "single_word": false,
      "lstrip": false,
      "rstrip": false,
      "normalized": false,
      "special": false
    },
    {
      "id": 112,
      "content": "『",
      "single_word": false,
      "lstrip": false,
      "rstrip": false,
      "normalized": false,
      "special": false
    },
    {
      "id": 113,
      "content": "』",
      "single_word": false,
      "lstrip": false,
      "rstrip": false,
      "normalized": false,
      "special": false
    },
    {
      "id": 114,
      "content": "```",
      "single_word": false,
      "lstrip": false,
      "rstrip": false,
      "normalized": false,
      "special": false
    },
    {
      "id": 115,
      "content": "<!--",
      "single_word": false,
      "lstrip": false,
      "rstrip": false,
      "normalized": false,
      "special": false
    },
    {
      "id": 116,
      "content": "-->",
      "single_word": false,
      "lstrip": false,
      "rstrip": false,
      "normalized": false,
      "special": false
    },
    {
      "id": 117,
      "content": "---",
      "single_word": false,
      "lstrip": false,
      "rstrip": false,
      "normalized": false,
      "special": false
    },
    {
      "id": 118,
      "content": "<!DOCTYPE>",
      "single_word": false,
      "lstrip": false,
      "rstrip": false,
      "normalized": false,
      "special": false
    },
    {
      "id": 119,
      "content": "\t\t\t\t\t\t\t\t",
      "single_word": false,
      "lstrip": false,
      "rstrip": false,
      "normalized": false,
      "special": false
    },
    {
      "id": 120,
      "content": "\t\t\t\t\t\t\t",
      "single_word": false,
      "lstrip": false,
      "rstrip": false,
      "normalized": false,
      "special": false
    },
    {
      "id": 121,
      "content": "\t\t\t\t\t\t",
      "single_word": false,
      "lstrip": false,
      "rstrip": false,
      "normalized": false,
      "special": false
    },
    {
      "id": 122,
      "content": "\t\t\t\t\t",
      "single_word": false,
      "lstrip": false,
      "rstrip": false,
      "normalized": false,
      "special": false
    },
    {
      "id": 123,
      "content": "\t\t\t\t",
      "single_word": false,
      "lstrip": false,
      "rstrip": false,
      "normalized": false,
      "special": false
    },
    {
      "id": 124,
      "content": "\t\t\t",
      "single_word": false,
      "lstrip": false,
      "rstrip": false,
      "normalized": false,
      "special": false
    },
    {
      "id": 125,
      "content": "\t\t",
      "single_word": false,
      "lstrip": false,
      "rstrip": false,
      "normalized": false,
      "special": false
    },
    {
      "id": 126,
      "content": "\t",
      "single_word": false,
      "lstrip": false,
      "rstrip": false,
      "normalized": false,
      "special": false
    },
    {
      "id": 127,
      "content": "▁▁▁▁▁▁▁▁▁▁▁▁▁▁▁▁",
      "single_word": false,
      "lstrip": false,
      "rstrip": false,
      "normalized": false,
      "special": false
    },
    {
      "id": 128,
      "content": "▁▁▁▁▁▁▁▁▁▁▁▁▁▁▁",
      "single_word": false,
      "lstrip": false,
      "rstrip": false,
      "normalized": false,
      "special": false
    },
    {
      "id": 129,
      "content": "▁▁▁▁▁▁▁▁▁▁▁▁▁▁",
      "single_word": false,
      "lstrip": false,
      "rstrip": false,
      "normalized": false,
      "special": false
    },
    {
      "id": 130,
      "content": "▁▁▁▁▁▁▁▁▁▁▁▁▁",
      "single_word": false,
      "lstrip": false,
      "rstrip": false,
      "normalized": false,
      "special": false
    },
    {
      "id": 131,
      "content": "▁▁▁▁▁▁▁▁▁▁▁▁",
      "single_word": false,
      "lstrip": false,
      "rstrip": false,
      "normalized": false,
      "special": false
    },
    {
      "id": 132,
      "content": "▁▁▁▁▁▁▁▁▁▁▁",
      "single_word": false,
      "lstrip": false,
      "rstrip": false,
      "normalized": false,
      "special": false
    },
    {
      "id": 133,
      "content": "▁▁▁▁▁▁▁▁▁▁",
      "single_word": false,
      "lstrip": false,
      "rstrip": false,
      "normalized": false,
      "special": false
    },
    {
      "id": 134,
      "content": "▁▁▁▁▁▁▁▁▁",
      "single_word": false,
      "lstrip": false,
      "rstrip": false,
      "normalized": false,
      "special": false
    },
    {
      "id": 135,
      "content": "▁▁▁▁▁▁▁▁",
      "single_word": false,
      "lstrip": false,
      "rstrip": false,
      "normalized": false,
      "special": false
    },
    {
      "id": 136,
      "content": "▁▁▁▁▁▁▁",
      "single_word": false,
      "lstrip": false,
      "rstrip": false,
      "normalized": false,
      "special": false
    },
    {
      "id": 137,
      "content": "▁▁▁▁▁▁",
      "single_word": false,
      "lstrip": false,
      "rstrip": false,
      "normalized": false,
      "special": false
    },
    {
      "id": 138,
      "content": "▁▁▁▁▁",
      "single_word": false,
      "lstrip": false,
      "rstrip": false,
      "normalized": false,
      "special": false
    },
    {
      "id": 139,
      "content": "▁▁▁▁",
      "single_word": false,
      "lstrip": false,
      "rstrip": false,
      "normalized": false,
      "special": false
    },
    {
      "id": 140,
      "content": "▁▁▁",
      "single_word": false,
      "lstrip": false,
      "rstrip": false,
      "normalized": false,
      "special": false
    },
    {
      "id": 141,
      "content": "▁▁",
      "single_word": false,
      "lstrip": false,
      "rstrip": false,
      "normalized": false,
      "special": false
    },
    {
      "id": 142,
      "content": "\b",
      "single_word": false,
      "lstrip": false,
      "rstrip": false,
      "normalized": false,
      "special": false
    },
    {
      "id": 143,
      "content": "\r",
      "single_word": false,
      "lstrip": false,
      "rstrip": false,
      "normalized": false,
      "special": false
    },
    {
      "id": 144,
      "content": "\n",
      "single_word": false,
      "lstrip": false,
      "rstrip": false,
      "normalized": false,
      "special": false
    },
    {
      "id": 145,
      "content": "<|unused000|>",
      "single_word": false,
      "lstrip": false,
      "rstrip": false,
      "normalized": false,
      "special": false
    },
    {
      "id": 146,
      "content": "<|unused001|>",
      "single_word": false,
      "lstrip": false,
      "rstrip": false,
      "normalized": false,
      "special": false
    },
    {
      "id": 147,
      "content": "<|unused002|>",
      "single_word": false,
      "lstrip": false,
      "rstrip": false,
      "normalized": false,
      "special": false
    },
    {
      "id": 148,
      "content": "<|unused003|>",
      "single_word": false,
      "lstrip": false,
      "rstrip": false,
      "normalized": false,
      "special": false
    },
    {
      "id": 149,
      "content": "<|unused004|>",
      "single_word": false,
      "lstrip": false,
      "rstrip": false,
      "normalized": false,
      "special": false
    },
    {
      "id": 150,
      "content": "<|unused005|>",
      "single_word": false,
      "lstrip": false,
      "rstrip": false,
      "normalized": false,
      "special": false
    },
    {
      "id": 151,
      "content": "<|unused006|>",
      "single_word": false,
      "lstrip": false,
      "rstrip": false,
      "normalized": false,
      "special": false
    },
    {
      "id": 152,
      "content": "<|unused007|>",
      "single_word": false,
      "lstrip": false,
      "rstrip": false,
      "normalized": false,
      "special": false
    },
    {
      "id": 153,
      "content": "<|unused008|>",
      "single_word": false,
      "lstrip": false,
      "rstrip": false,
      "normalized": false,
      "special": false
    },
    {
      "id": 154,
      "content": "<|unused009|>",
      "single_word": false,
      "lstrip": false,
      "rstrip": false,
      "normalized": false,
      "special": false
    },
    {
      "id": 155,
      "content": "<|unused010|>",
      "single_word": false,
      "lstrip": false,
      "rstrip": false,
      "normalized": false,
      "special": false
    },
    {
      "id": 156,
      "content": "<|unused011|>",
      "single_word": false,
      "lstrip": false,
      "rstrip": false,
      "normalized": false,
      "special": false
    },
    {
      "id": 157,
      "content": "<|unused012|>",
      "single_word": false,
      "lstrip": false,
      "rstrip": false,
      "normalized": false,
      "special": false
    },
    {
      "id": 158,
      "content": "<|unused013|>",
      "single_word": false,
      "lstrip": false,
      "rstrip": false,
      "normalized": false,
      "special": false
    },
    {
      "id": 159,
      "content": "<|unused014|>",
      "single_word": false,
      "lstrip": false,
      "rstrip": false,
      "normalized": false,
      "special": false
    },
    {
      "id": 160,
      "content": "<|unused015|>",
      "single_word": false,
      "lstrip": false,
      "rstrip": false,
      "normalized": false,
      "special": false
    },
    {
      "id": 161,
      "content": "<|unused016|>",
      "single_word": false,
      "lstrip": false,
      "rstrip": false,
      "normalized": false,
      "special": false
    },
    {
      "id": 162,
      "content": "<|unused017|>",
      "single_word": false,
      "lstrip": false,
      "rstrip": false,
      "normalized": false,
      "special": false
    },
    {
      "id": 163,
      "content": "<|unused018|>",
      "single_word": false,
      "lstrip": false,
      "rstrip": false,
      "normalized": false,
      "special": false
    },
    {
      "id": 164,
      "content": "<|unused019|>",
      "single_word": false,
      "lstrip": false,
      "rstrip": false,
      "normalized": false,
      "special": false
    },
    {
      "id": 165,
      "content": "<|unused020|>",
      "single_word": false,
      "lstrip": false,
      "rstrip": false,
      "normalized": false,
      "special": false
    },
    {
      "id": 166,
      "content": "<|unused021|>",
      "single_word": false,
      "lstrip": false,
      "rstrip": false,
      "normalized": false,
      "special": false
    },
    {
      "id": 167,
      "content": "<|unused022|>",
      "single_word": false,
      "lstrip": false,
      "rstrip": false,
      "normalized": false,
      "special": false
    },
    {
      "id": 168,
      "content": "<|unused023|>",
      "single_word": false,
      "lstrip": false,
      "rstrip": false,
      "normalized": false,
      "special": false
    },
    {
      "id": 169,
      "content": "<|unused024|>",
      "single_word": false,
      "lstrip": false,
      "rstrip": false,
      "normalized": false,
      "special": false
    },
    {
      "id": 170,
      "content": "<|unused025|>",
      "single_word": false,
      "lstrip": false,
      "rstrip": false,
      "normalized": false,
      "special": false
    },
    {
      "id": 171,
      "content": "<|unused026|>",
      "single_word": false,
      "lstrip": false,
      "rstrip": false,
      "normalized": false,
      "special": false
    },
    {
      "id": 172,
      "content": "<|unused027|>",
      "single_word": false,
      "lstrip": false,
      "rstrip": false,
      "normalized": false,
      "special": false
    },
    {
      "id": 173,
      "content": "<|unused028|>",
      "single_word": false,
      "lstrip": false,
      "rstrip": false,
      "normalized": false,
      "special": false
    },
    {
      "id": 174,
      "content": "<|unused029|>",
      "single_word": false,
      "lstrip": false,
      "rstrip": false,
      "normalized": false,
      "special": false
    },
    {
      "id": 175,
      "content": "<|unused030|>",
      "single_word": false,
      "lstrip": false,
      "rstrip": false,
      "normalized": false,
      "special": false
    },
    {
      "id": 176,
      "content": "<|unused031|>",
      "single_word": false,
      "lstrip": false,
      "rstrip": false,
      "normalized": false,
      "special": false
    },
    {
      "id": 177,
      "content": "<|unused032|>",
      "single_word": false,
      "lstrip": false,
      "rstrip": false,
      "normalized": false,
      "special": false
    },
    {
      "id": 178,
      "content": "<|unused033|>",
      "single_word": false,
      "lstrip": false,
      "rstrip": false,
      "normalized": false,
      "special": false
    },
    {
      "id": 179,
      "content": "<|unused034|>",
      "single_word": false,
      "lstrip": false,
      "rstrip": false,
      "normalized": false,
      "special": false
    },
    {
      "id": 180,
      "content": "<|unused035|>",
      "single_word": false,
      "lstrip": false,
      "rstrip": false,
      "normalized": false,
      "special": false
    },
    {
      "id": 181,
      "content": "<|unused036|>",
      "single_word": false,
      "lstrip": false,
      "rstrip": false,
      "normalized": false,
      "special": false
    },
    {
      "id": 182,
      "content": "<|unused037|>",
      "single_word": false,
      "lstrip": false,
      "rstrip": false,
      "normalized": false,
      "special": false
    },
    {
      "id": 183,
      "content": "<|unused038|>",
      "single_word": false,
      "lstrip": false,
      "rstrip": false,
      "normalized": false,
      "special": false
    },
    {
      "id": 184,
      "content": "<|unused039|>",
      "single_word": false,
      "lstrip": false,
      "rstrip": false,
      "normalized": false,
      "special": false
    },
    {
      "id": 185,
      "content": "<|unused040|>",
      "single_word": false,
      "lstrip": false,
      "rstrip": false,
      "normalized": false,
      "special": false
    },
    {
      "id": 186,
      "content": "<|unused041|>",
      "single_word": false,
      "lstrip": false,
      "rstrip": false,
      "normalized": false,
      "special": false
    },
    {
      "id": 187,
      "content": "<|unused042|>",
      "single_word": false,
      "lstrip": false,
      "rstrip": false,
      "normalized": false,
      "special": false
    },
    {
      "id": 188,
      "content": "<|unused043|>",
      "single_word": false,
      "lstrip": false,
      "rstrip": false,
      "normalized": false,
      "special": false
    },
    {
      "id": 189,
      "content": "<|unused044|>",
      "single_word": false,
      "lstrip": false,
      "rstrip": false,
      "normalized": false,
      "special": false
    },
    {
      "id": 190,
      "content": "<|unused045|>",
      "single_word": false,
      "lstrip": false,
      "rstrip": false,
      "normalized": false,
      "special": false
    },
    {
      "id": 191,
      "content": "<|unused046|>",
      "single_word": false,
      "lstrip": false,
      "rstrip": false,
      "normalized": false,
      "special": false
    },
    {
      "id": 192,
      "content": "<|unused047|>",
      "single_word": false,
      "lstrip": false,
      "rstrip": false,
      "normalized": false,
      "special": false
    },
    {
      "id": 193,
      "content": "<|unused048|>",
      "single_word": false,
      "lstrip": false,
      "rstrip": false,
      "normalized": false,
      "special": false
    },
    {
      "id": 194,
      "content": "<|unused049|>",
      "single_word": false,
      "lstrip": false,
      "rstrip": false,
      "normalized": false,
      "special": false
    },
    {
      "id": 195,
      "content": "<|unused050|>",
      "single_word": false,
      "lstrip": false,
      "rstrip": false,
      "normalized": false,
      "special": false
    },
    {
      "id": 196,
      "content": "<|unused051|>",
      "single_word": false,
      "lstrip": false,
      "rstrip": false,
      "normalized": false,
      "special": false
    },
    {
      "id": 197,
      "content": "<|unused052|>",
      "single_word": false,
      "lstrip": false,
      "rstrip": false,
      "normalized": false,
      "special": false
    },
    {
      "id": 198,
      "content": "<|unused053|>",
      "single_word": false,
      "lstrip": false,
      "rstrip": false,
      "normalized": false,
      "special": false
    },
    {
      "id": 199,
      "content": "<|unused054|>",
      "single_word": false,
      "lstrip": false,
      "rstrip": false,
      "normalized": false,
      "special": false
    },
    {
      "id": 200,
      "content": "<|unused055|>",
      "single_word": false,
      "lstrip": false,
      "rstrip": false,
      "normalized": false,
      "special": false
    },
    {
      "id": 201,
      "content": "<|unused056|>",
      "single_word": false,
      "lstrip": false,
      "rstrip": false,
      "normalized": false,
      "special": false
    },
    {
      "id": 202,
      "content": "<|unused057|>",
      "single_word": false,
      "lstrip": false,
      "rstrip": false,
      "normalized": false,
      "special": false
    },
    {
      "id": 203,
      "content": "<|unused058|>",
      "single_word": false,
      "lstrip": false,
      "rstrip": false,
      "normalized": false,
      "special": false
    },
    {
      "id": 204,
      "content": "<|unused059|>",
      "single_word": false,
      "lstrip": false,
      "rstrip": false,
      "normalized": false,
      "special": false
    },
    {
      "id": 205,
      "content": "<|unused060|>",
      "single_word": false,
      "lstrip": false,
      "rstrip": false,
      "normalized": false,
      "special": false
    },
    {
      "id": 206,
      "content": "<|unused061|>",
      "single_word": false,
      "lstrip": false,
      "rstrip": false,
      "normalized": false,
      "special": false
    },
    {
      "id": 207,
      "content": "<|unused062|>",
      "single_word": false,
      "lstrip": false,
      "rstrip": false,
      "normalized": false,
      "special": false
    },
    {
      "id": 208,
      "content": "<|unused063|>",
      "single_word": false,
      "lstrip": false,
      "rstrip": false,
      "normalized": false,
      "special": false
    },
    {
      "id": 209,
      "content": "<|unused064|>",
      "single_word": false,
      "lstrip": false,
      "rstrip": false,
      "normalized": false,
      "special": false
    },
    {
      "id": 210,
      "content": "<|unused065|>",
      "single_word": false,
      "lstrip": false,
      "rstrip": false,
      "normalized": false,
      "special": false
    },
    {
      "id": 211,
      "content": "<|unused066|>",
      "single_word": false,
      "lstrip": false,
      "rstrip": false,
      "normalized": false,
      "special": false
    },
    {
      "id": 212,
      "content": "<|unused067|>",
      "single_word": false,
      "lstrip": false,
      "rstrip": false,
      "normalized": false,
      "special": false
    },
    {
      "id": 213,
      "content": "<|unused068|>",
      "single_word": false,
      "lstrip": false,
      "rstrip": false,
      "normalized": false,
      "special": false
    },
    {
      "id": 214,
      "content": "<|unused069|>",
      "single_word": false,
      "lstrip": false,
      "rstrip": false,
      "normalized": false,
      "special": false
    },
    {
      "id": 215,
      "content": "<|unused070|>",
      "single_word": false,
      "lstrip": false,
      "rstrip": false,
      "normalized": false,
      "special": false
    },
    {
      "id": 216,
      "content": "<|unused071|>",
      "single_word": false,
      "lstrip": false,
      "rstrip": false,
      "normalized": false,
      "special": false
    },
    {
      "id": 217,
      "content": "<|unused072|>",
      "single_word": false,
      "lstrip": false,
      "rstrip": false,
      "normalized": false,
      "special": false
    },
    {
      "id": 218,
      "content": "<|unused073|>",
      "single_word": false,
      "lstrip": false,
      "rstrip": false,
      "normalized": false,
      "special": false
    },
    {
      "id": 219,
      "content": "<|unused074|>",
      "single_word": false,
      "lstrip": false,
      "rstrip": false,
      "normalized": false,
      "special": false
    },
    {
      "id": 220,
      "content": "<|unused075|>",
      "single_word": false,
      "lstrip": false,
      "rstrip": false,
      "normalized": false,
      "special": false
    },
    {
      "id": 221,
      "content": "<|unused076|>",
      "single_word": false,
      "lstrip": false,
      "rstrip": false,
      "normalized": false,
      "special": false
    },
    {
      "id": 222,
      "content": "<|unused077|>",
      "single_word": false,
      "lstrip": false,
      "rstrip": false,
      "normalized": false,
      "special": false
    },
    {
      "id": 223,
      "content": "<|unused078|>",
      "single_word": false,
      "lstrip": false,
      "rstrip": false,
      "normalized": false,
      "special": false
    },
    {
      "id": 224,
      "content": "<|unused079|>",
      "single_word": false,
      "lstrip": false,
      "rstrip": false,
      "normalized": false,
      "special": false
    },
    {
      "id": 225,
      "content": "<|unused080|>",
      "single_word": false,
      "lstrip": false,
      "rstrip": false,
      "normalized": false,
      "special": false
    },
    {
      "id": 226,
      "content": "<|unused081|>",
      "single_word": false,
      "lstrip": false,
      "rstrip": false,
      "normalized": false,
      "special": false
    },
    {
      "id": 227,
      "content": "<|unused082|>",
      "single_word": false,
      "lstrip": false,
      "rstrip": false,
      "normalized": false,
      "special": false
    },
    {
      "id": 228,
      "content": "<|unused083|>",
      "single_word": false,
      "lstrip": false,
      "rstrip": false,
      "normalized": false,
      "special": false
    },
    {
      "id": 229,
      "content": "<|unused084|>",
      "single_word": false,
      "lstrip": false,
      "rstrip": false,
      "normalized": false,
      "special": false
    },
    {
      "id": 230,
      "content": "<|unused085|>",
      "single_word": false,
      "lstrip": false,
      "rstrip": false,
      "normalized": false,
      "special": false
    },
    {
      "id": 231,
      "content": "<|unused086|>",
      "single_word": false,
      "lstrip": false,
      "rstrip": false,
      "normalized": false,
      "special": false
    },
    {
      "id": 232,
      "content": "<|unused087|>",
      "single_word": false,
      "lstrip": false,
      "rstrip": false,
      "normalized": false,
      "special": false
    },
    {
      "id": 233,
      "content": "<|unused088|>",
      "single_word": false,
      "lstrip": false,
      "rstrip": false,
      "normalized": false,
      "special": false
    },
    {
      "id": 234,
      "content": "<|unused089|>",
      "single_word": false,
      "lstrip": false,
      "rstrip": false,
      "normalized": false,
      "special": false
    },
    {
      "id": 235,
      "content": "<|unused090|>",
      "single_word": false,
      "lstrip": false,
      "rstrip": false,
      "normalized": false,
      "special": false
    },
    {
      "id": 236,
      "content": "<|unused091|>",
      "single_word": false,
      "lstrip": false,
      "rstrip": false,
      "normalized": false,
      "special": false
    },
    {
      "id": 237,
      "content": "<|unused092|>",
      "single_word": false,
      "lstrip": false,
      "rstrip": false,
      "normalized": false,
      "special": false
    },
    {
      "id": 238,
      "content": "<|unused093|>",
      "single_word": false,
      "lstrip": false,
      "rstrip": false,
      "normalized": false,
      "special": false
    },
    {
      "id": 239,
      "content": "<|unused094|>",
      "single_word": false,
      "lstrip": false,
      "rstrip": false,
      "normalized": false,
      "special": false
    },
    {
      "id": 240,
      "content": "<|unused095|>",
      "single_word": false,
      "lstrip": false,
      "rstrip": false,
      "normalized": false,
      "special": false
    },
    {
      "id": 241,
      "content": "<|unused096|>",
      "single_word": false,
      "lstrip": false,
      "rstrip": false,
      "normalized": false,
      "special": false
    },
    {
      "id": 242,
      "content": "<|unused097|>",
      "single_word": false,
      "lstrip": false,
      "rstrip": false,
      "normalized": false,
      "special": false
    },
    {
      "id": 243,
      "content": "<|unused098|>",
      "single_word": false,
      "lstrip": false,
      "rstrip": false,
      "normalized": false,
      "special": false
    },
    {
      "id": 244,
      "content": "<|unused099|>",
      "single_word": false,
      "lstrip": false,
      "rstrip": false,
      "normalized": false,
      "special": false
    },
    {
      "id": 245,
      "content": "<|unused100|>",
      "single_word": false,
      "lstrip": false,
      "rstrip": false,
      "normalized": false,
      "special": false
    },
    {
      "id": 246,
      "content": "<|unused101|>",
      "single_word": false,
      "lstrip": false,
      "rstrip": false,
      "normalized": false,
      "special": false
    },
    {
      "id": 247,
      "content": "<|unused102|>",
      "single_word": false,
      "lstrip": false,
      "rstrip": false,
      "normalized": false,
      "special": false
    },
    {
      "id": 248,
      "content": "<|unused103|>",
      "single_word": false,
      "lstrip": false,
      "rstrip": false,
      "normalized": false,
      "special": false
    },
    {
      "id": 249,
      "content": "<|unused104|>",
      "single_word": false,
      "lstrip": false,
      "rstrip": false,
      "normalized": false,
      "special": false
    },
    {
      "id": 250,
      "content": "<|unused105|>",
      "single_word": false,
      "lstrip": false,
      "rstrip": false,
      "normalized": false,
      "special": false
    },
    {
      "id": 251,
      "content": "<|unused106|>",
      "single_word": false,
      "lstrip": false,
      "rstrip": false,
      "normalized": false,
      "special": false
    },
    {
      "id": 252,
      "content": "<|unused107|>",
      "single_word": false,
      "lstrip": false,
      "rstrip": false,
      "normalized": false,
      "special": false
    },
    {
      "id": 253,
      "content": "<|unused108|>",
      "single_word": false,
      "lstrip": false,
      "rstrip": false,
      "normalized": false,
      "special": false
    },
    {
      "id": 254,
      "content": "<|unused109|>",
      "single_word": false,
      "lstrip": false,
      "rstrip": false,
      "normalized": false,
      "special": false
    },
    {
      "id": 255,
      "content": "<|unused110|>",
      "single_word": false,
      "lstrip": false,
      "rstrip": false,
      "normalized": false,
      "special": false
    },
    {
      "id": 256,
      "content": "<|unused111|>",
      "single_word": false,
      "lstrip": false,
      "rstrip": false,
      "normalized": false,
      "special": false
    },
    {
      "id": 257,
      "content": "<|unused112|>",
      "single_word": false,
      "lstrip": false,
      "rstrip": false,
      "normalized": false,
      "special": false
    },
    {
      "id": 258,
      "content": "<|unused113|>",
      "single_word": false,
      "lstrip": false,
      "rstrip": false,
      "normalized": false,
      "special": false
    },
    {
      "id": 259,
      "content": "<|unused114|>",
      "single_word": false,
      "lstrip": false,
      "rstrip": false,
      "normalized": false,
      "special": false
    },
    {
      "id": 260,
      "content": "<|unused115|>",
      "single_word": false,
      "lstrip": false,
      "rstrip": false,
      "normalized": false,
      "special": false
    },
    {
      "id": 261,
      "content": "<|unused116|>",
      "single_word": false,
      "lstrip": false,
      "rstrip": false,
      "normalized": false,
      "special": false
    },
    {
      "id": 262,
      "content": "<|unused117|>",
      "single_word": false,
      "lstrip": false,
      "rstrip": false,
      "normalized": false,
      "special": false
    },
    {
      "id": 263,
      "content": "<|unused118|>",
      "single_word": false,
      "lstrip": false,
      "rstrip": false,
      "normalized": false,
      "special": false
    },
    {
      "id": 264,
      "content": "<|unused119|>",
      "single_word": false,
      "lstrip": false,
      "rstrip": false,
      "normalized": false,
      "special": false
    },
    {
      "id": 265,
      "content": "<|unused120|>",
      "single_word": false,
      "lstrip": false,
      "rstrip": false,
      "normalized": false,
      "special": false
    },
    {
      "id": 266,
      "content": "<|unused121|>",
      "single_word": false,
      "lstrip": false,
      "rstrip": false,
      "normalized": false,
      "special": false
    },
    {
      "id": 267,
      "content": "<|unused122|>",
      "single_word": false,
      "lstrip": false,
      "rstrip": false,
      "normalized": false,
      "special": false
    },
    {
      "id": 268,
      "content": "<|unused123|>",
      "single_word": false,
      "lstrip": false,
      "rstrip": false,
      "normalized": false,
      "special": false
    },
    {
      "id": 269,
      "content": "<|unused124|>",
      "single_word": false,
      "lstrip": false,
      "rstrip": false,
      "normalized": false,
      "special": false
    },
    {
      "id": 270,
      "content": "<|unused125|>",
      "single_word": false,
      "lstrip": false,
      "rstrip": false,
      "normalized": false,
      "special": false
    },
    {
      "id": 271,
      "content": "<|unused126|>",
      "single_word": false,
      "lstrip": false,
      "rstrip": false,
      "normalized": false,
      "special": false
    },
    {
      "id": 272,
      "content": "<|unused127|>",
      "single_word": false,
      "lstrip": false,
      "rstrip": false,
      "normalized": false,
      "special": false
    },
    {
      "id": 273,
      "content": "<|unused128|>",
      "single_word": false,
      "lstrip": false,
      "rstrip": false,
      "normalized": false,
      "special": false
    },
    {
      "id": 274,
      "content": "<|unused129|>",
      "single_word": false,
      "lstrip": false,
      "rstrip": false,
      "normalized": false,
      "special": false
    },
    {
      "id": 275,
      "content": "<|unused130|>",
      "single_word": false,
      "lstrip": false,
      "rstrip": false,
      "normalized": false,
      "special": false
    },
    {
      "id": 276,
      "content": "<|unused131|>",
      "single_word": false,
      "lstrip": false,
      "rstrip": false,
      "normalized": false,
      "special": false
    },
    {
      "id": 277,
      "content": "<|unused132|>",
      "single_word": false,
      "lstrip": false,
      "rstrip": false,
      "normalized": false,
      "special": false
    },
    {
      "id": 278,
      "content": "<|unused133|>",
      "single_word": false,
      "lstrip": false,
      "rstrip": false,
      "normalized": false,
      "special": false
    },
    {
      "id": 279,
      "content": "<|unused134|>",
      "single_word": false,
      "lstrip": false,
      "rstrip": false,
      "normalized": false,
      "special": false
    },
    {
      "id": 280,
      "content": "<|unused135|>",
      "single_word": false,
      "lstrip": false,
      "rstrip": false,
      "normalized": false,
      "special": false
    },
    {
      "id": 281,
      "content": "<|unused136|>",
      "single_word": false,
      "lstrip": false,
      "rstrip": false,
      "normalized": false,
      "special": false
    },
    {
      "id": 282,
      "content": "<|unused137|>",
      "single_word": false,
      "lstrip": false,
      "rstrip": false,
      "normalized": false,
      "special": false
    },
    {
      "id": 283,
      "content": "<|unused138|>",
      "single_word": false,
      "lstrip": false,
      "rstrip": false,
      "normalized": false,
      "special": false
    },
    {
      "id": 284,
      "content": "<|unused139|>",
      "single_word": false,
      "lstrip": false,
      "rstrip": false,
      "normalized": false,
      "special": false
    },
    {
      "id": 285,
      "content": "<|unused140|>",
      "single_word": false,
      "lstrip": false,
      "rstrip": false,
      "normalized": false,
      "special": false
    },
    {
      "id": 286,
      "content": "<|unused141|>",
      "single_word": false,
      "lstrip": false,
      "rstrip": false,
      "normalized": false,
      "special": false
    },
    {
      "id": 287,
      "content": "<|unused142|>",
      "single_word": false,
      "lstrip": false,
      "rstrip": false,
      "normalized": false,
      "special": false
    },
    {
      "id": 288,
      "content": "<|unused143|>",
      "single_word": false,
      "lstrip": false,
      "rstrip": false,
      "normalized": false,
      "special": false
    },
    {
      "id": 289,
      "content": "<|unused144|>",
      "single_word": false,
      "lstrip": false,
      "rstrip": false,
      "normalized": false,
      "special": false
    },
    {
      "id": 290,
      "content": "<|unused145|>",
      "single_word": false,
      "lstrip": false,
      "rstrip": false,
      "normalized": false,
      "special": false
    },
    {
      "id": 291,
      "content": "<|unused146|>",
      "single_word": false,
      "lstrip": false,
      "rstrip": false,
      "normalized": false,
      "special": false
    },
    {
      "id": 292,
      "content": "<|unused147|>",
      "single_word": false,
      "lstrip": false,
      "rstrip": false,
      "normalized": false,
      "special": false
    },
    {
      "id": 293,
      "content": "<|unused148|>",
      "single_word": false,
      "lstrip": false,
      "rstrip": false,
      "normalized": false,
      "special": false
    },
    {
      "id": 294,
      "content": "<|unused149|>",
      "single_word": false,
      "lstrip": false,
      "rstrip": false,
      "normalized": false,
      "special": false
    },
    {
      "id": 295,
      "content": "<|unused150|>",
      "single_word": false,
      "lstrip": false,
      "rstrip": false,
      "normalized": false,
      "special": false
    },
    {
      "id": 296,
      "content": "<|unused151|>",
      "single_word": false,
      "lstrip": false,
      "rstrip": false,
      "normalized": false,
      "special": false
    },
    {
      "id": 297,
      "content": "<|unused152|>",
      "single_word": false,
      "lstrip": false,
      "rstrip": false,
      "normalized": false,
      "special": false
    },
    {
      "id": 298,
      "content": "<|unused153|>",
      "single_word": false,
      "lstrip": false,
      "rstrip": false,
      "normalized": false,
      "special": false
    },
    {
      "id": 299,
      "content": "<|unused154|>",
      "single_word": false,
      "lstrip": false,
      "rstrip": false,
      "normalized": false,
      "special": false
    },
    {
      "id": 300,
      "content": "<|unused155|>",
      "single_word": false,
      "lstrip": false,
      "rstrip": false,
      "normalized": false,
      "special": false
    },
    {
      "id": 301,
      "content": "<|unused156|>",
      "single_word": false,
      "lstrip": false,
      "rstrip": false,
      "normalized": false,
      "special": false
    },
    {
      "id": 302,
      "content": "<|unused157|>",
      "single_word": false,
      "lstrip": false,
      "rstrip": false,
      "normalized": false,
      "special": false
    },
    {
      "id": 303,
      "content": "<|unused158|>",
      "single_word": false,
      "lstrip": false,
      "rstrip": false,
      "normalized": false,
      "special": false
    },
    {
      "id": 304,
      "content": "<|unused159|>",
      "single_word": false,
      "lstrip": false,
      "rstrip": false,
      "normalized": false,
      "special": false
    }
  ],
  "normalizer": {
    "type": "Sequence",
    "normalizers": [
      {
        "type": "Prepend",
        "prepend": "▁"
      },
      {
        "type": "Replace",
        "pattern": {
          "String": " "
        },
        "content": "▁"
      }
    ]
  },
  "pre_tokenizer": null,
  "post_processor": {
    "type": "TemplateProcessing",
    "single": [
      {
        "Sequence": {
          "id": "A",
          "type_id": 0
        }
      }
    ],
    "pair": [
      {
        "Sequence": {
          "id": "A",
          "type_id": 0
        }
      },
      {
        "Sequence": {
          "id": "B",
          "type_id": 1
        }
      }
    ],
    "special_tokens": {}
  },
  "decoder": {
    "type": "Sequence",
    "decoders": [
      {
        "type": "Replace",
        "pattern": {
          "String": "▁"
        },
        "content": " "
      },
      {
        "type": "ByteFallback"
      },
      {
        "type": "Fuse"
      },
      {
        "type": "Strip",
        "content": " ",
        "start": 1,
        "stop": 0
      }
    ]
  },
  "model": {
    "type": "BPE",
    "dropout": null,
    "unk_token": "<unk>",
    "continuing_subword_prefix": null,
    "end_of_word_suffix": null,
    "fuse_unk": true,
    "byte_fallback": true,
    "ignore_merges": false,
    "vocab": {
      "<unk>": 0,
      "<|startoftext|>": 1,
      "<|endoftext|>": 2,
      "<|Human|>": 3,
      "<|Assistant|>": 4,
      "<|System|>": 5,
      "<|im_start|>": 6,
      "<|im_end|>": 7,
      "<|im_sep|>": 8,
      "<|reserved003|>": 9,
      "<|reserved004|>": 10,
      "<|reserved005|>": 11,
      "<|reserved006|>": 12,
      "<|reserved007|>": 13,
      "<fim_prefix>": 14,
      "<fim_middle>": 15,
      "<fim_suffix>": 16,
      "<fim_pad>": 17,
      "<filename>": 18,
      "<gh_stars>": 19,
      "<issue_start>": 20,
      "<issue_comment>": 21,
      "<issue_closed>": 22,
      "<jupyter_start>": 23,
      "<jupyter_text>": 24,
      "<jupyter_code>": 25,
      "<jupyter_output>": 26,
      "<empty_output>": 27,
      "<commit_before>": 28,
      "<commit_msg>": 29,
      "<commit_after>": 30,
      "<reponame>": 31,
      "<h1>": 32,
      "<h1/>": 33,
      "</h1>": 34,
      "<h2>": 35,
      "<h2/>": 36,
      "</h2>": 37,
      "<h3>": 38,
      "<h3/>": 39,
      "</h3>": 40,
      "<h4>": 41,
      "<h4/>": 42,
      "</h4>": 43,
      "<h5>": 44,
      "<h5/>": 45,
      "</h5>": 46,
      "<br>": 47,
      "<br/>": 48,
      "</br>": 49,
      "<strong>": 50,
      "<strong/>": 51,
      "</strong>": 52,
      "<p>": 53,
      "<p/>": 54,
      "</p>": 55,
      "<table>": 56,
      "<table/>": 57,
      "</table>": 58,
      "<li>": 59,
      "<li/>": 60,
      "</li>": 61,
      "<tr>": 62,
      "<tr/>": 63,
      "</tr>": 64,
      "<tbody>": 65,
      "<tbody/>": 66,
      "</tbody>": 67,
      "<img>": 68,
      "<img/>": 69,
      "</img>": 70,
      "<b>": 71,
      "<b/>": 72,
      "</b>": 73,
      "<td>": 74,
      "<td/>": 75,
      "</td>": 76,
      "0": 77,
      "1": 78,
      "2": 79,
      "3": 80,
      "4": 81,
      "5": 82,
      "6": 83,
      "7": 84,
      "8": 85,
      "9": 86,
      "０": 87,
      "１": 88,
      "２": 89,
      "３": 90,
      "４": 91,
      "５": 92,
      "６": 93,
      "７": 94,
      "８": 95,
      "９": 96,
      ",": 97,
      ".": 98,
      "!": 99,
      "?": 100,
      "，": 101,
      "。": 102,
      "！": 103,
      "？": 104,
      "、": 105,
      "：": 106,
      "￥": 107,
      "《": 108,
      "》": 109,
      "【": 110,
      "】": 111,
      "『": 112,
      "』": 113,
      "```": 114,
      "<!--": 115,
      "-->": 116,
      "---": 117,
      "<!DOCTYPE>": 118,
      "\t\t\t\t\t\t\t\t": 119,
      "\t\t\t\t\t\t\t": 120,
      "\t\t\t\t\t\t": 121,
      "\t\t\t\t\t": 122,
      "\t\t\t\t": 123,
      "\t\t\t": 124,
      "\t\t": 125,
      "\t": 126,
      "▁▁▁▁▁▁▁▁▁▁▁▁▁▁▁▁": 127,
      "▁▁▁▁▁▁▁▁▁▁▁▁▁▁▁": 128,
      "▁▁▁▁▁▁▁▁▁▁▁▁▁▁": 129,
      "▁▁▁▁▁▁▁▁▁▁▁▁▁": 130,
      "▁▁▁▁▁▁▁▁▁▁▁▁": 131,
      "▁▁▁▁▁▁▁▁▁▁▁": 132,
      "▁▁▁▁▁▁▁▁▁▁": 133,
      "▁▁▁▁▁▁▁▁▁": 134,
      "▁▁▁▁▁▁▁▁": 135,
      "▁▁▁▁▁▁▁": 136,
      "▁▁▁▁▁▁": 137,
      "▁▁▁▁▁": 138,
      "▁▁▁▁": 139,
      "▁▁▁": 140,
      "▁▁": 141,
      "\b": 142,
      "\r": 143,
      "\n": 144,
      "<|unused000|>": 145,
      "<|unused001|>": 146,
      "<|unused002|>": 147,
      "<|unused003|>": 148,
      "<|unused004|>": 149,
      "<|unused005|>": 150,
      "<|unused006|>": 151,
      "<|unused007|>": 152,
      "<|unused008|>": 153,
      "<|unused009|>": 154,
      "<|unused010|>": 155,
      "<|unused011|>": 156,
      "<|unused012|>": 157,
      "<|unused013|>": 158,
      "<|unused014|>": 159,
      "<|unused015|>": 160,
      "<|unused016|>": 161,
      "<|unused017|>": 162,
      "<|unused018|>": 163,
      "<|unused019|>": 164,
      "<|unused020|>": 165,
      "<|unused021|>": 166,
      "<|unused022|>": 167,
      "<|unused023|>": 168,
      "<|unused024|>": 169,
      "<|unused025|>": 170,
      "<|unused026|>": 171,
      "<|unused027|>": 172,
      "<|unused028|>": 173,
      "<|unused029|>": 174,
      "<|unused030|>": 175,
      "<|unused031|>": 176,
      "<|unused032|>": 177,
      "<|unused033|>": 178,
      "<|unused034|>": 179,
      "<|unused035|>": 180,
      "<|unused036|>": 181,
      "<|unused037|>": 182,
      "<|unused038|>": 183,
      "<|unused039|>": 184,
      "<|unused040|>": 185,
      "<|unused041|>": 186,
      "<|unused042|>": 187,
      "<|unused043|>": 188,
      "<|unused044|>": 189,
      "<|unused045|>": 190,
      "<|unused046|>": 191,
      "<|unused047|>": 192,
      "<|unused048|>": 193,
      "<|unused049|>": 194,
      "<|unused050|>": 195,
      "<|unused051|>": 196,
      "<|unused052|>": 197,
      "<|unused053|>": 198,
      "<|unused054|>": 199,
      "<|unused055|>": 200,
      "<|unused056|>": 201,
      "<|unused057|>": 202,
      "<|unused058|>": 203,
      "<|unused059|>": 204,
      "<|unused060|>": 205,
      "<|unused061|>": 206,
      "<|unused062|>": 207,
      "<|unused063|>": 208,
      "<|unused064|>": 209,
      "<|unused065|>": 210,
      "<|unused066|>": 211,
      "<|unused067|>": 212,
      "<|unused068|>": 213,
      "<|unused069|>": 214,
      "<|unused070|>": 215,
      "<|unused071|>": 216,
      "<|unused072|>": 217,
      "<|unused073|>": 218,
      "<|unused074|>": 219,
      "<|unused075|>": 220,
      "<|unused076|>": 221,
      "<|unused077|>": 222,
      "<|unused078|>": 223,
      "<|unused079|>": 224,
      "<|unused080|>": 225,
      "<|unused081|>": 226,
      "<|unused082|>": 227,
      "<|unused083|>": 228,
      "<|unused084|>": 229,
      "<|unused085|>": 230,
      "<|unused086|>": 231,
      "<|unused087|>": 232,
      "<|unused088|>": 233,
      "<|unused089|>": 234,
      "<|unused090|>": 235,
      "<|unused091|>": 236,
      "<|unused092|>": 237,
      "<|unused093|>": 238,
      "<|unused094|>": 239,
      "<|unused095|>": 240,
      "<|unused096|>": 241,
      "<|unused097|>": 242,
      "<|unused098|>": 243,
      "<|unused099|>": 244,
      "<|unused100|>": 245,
      "<|unused101|>": 246,
      "<|unused102|>": 247,
      "<|unused103|>": 248,
      "<|unused104|>": 249,
      "<|unused105|>": 250,
      "<|unused106|>": 251,
      "<|unused107|>": 252,
      "<|unused108|>": 253,
      "<|unused109|>": 254,
      "<|unused110|>": 255,
      "<|unused111|>": 256,
      "<|unused112|>": 257,
      "<|unused113|>": 258,
      "<|unused114|>": 259,
      "<|unused115|>": 260,
      "<|unused116|>": 261,
      "<|unused117|>": 262,
      "<|unused118|>": 263,
      "<|unused119|>": 264,
      "<|unused120|>": 265,
      "<|unused121|>": 266,
      "<|unused122|>": 267,
      "<|unused123|>": 268,
      "<|unused124|>": 269,
      "<|unused125|>": 270,
      "<|unused126|>": 271,
      "<|unused127|>": 272,
      "<|unused128|>": 273,
      "<|unused129|>": 274,
      "<|unused130|>": 275,
      "<|unused131|>": 276,
      "<|unused132|>": 277,
      "<|unused133|>": 278,
      "<|unused134|>": 279,
      "<|unused135|>": 280,
      "<|unused136|>": 281,
      "<|unused137|>": 282,
      "<|unused138|>": 283,
      "<|unused139|>": 284,
      "<|unused140|>": 285,
      "<|unused141|>": 286,
      "<|unused142|>": 287,
      "<|unused143|>": 288,
      "<|unused144|>": 289,
      "<|unused145|>": 290,
      "<|unused146|>": 291,
      "<|unused147|>": 292,
      "<|unused148|>": 293,
      "<|unused149|>": 294,
      "<|unused150|>": 295,
      "<|unused151|>": 296,
      "<|unused152|>": 297,
      "<|unused153|>": 298,
      "<|unused154|>": 299,
      "<|unused155|>": 300,
      "<|unused156|>": 301,
      "<|unused157|>": 302,
      "<|unused158|>": 303,
      "<|unused159|>": 304,
      "<0x00>": 305,
      "<0x01>": 306,
      "<0x02>": 307,
      "<0x03>": 308,
      "<0x04>": 309,
      "<0x05>": 310,
      "<0x06>": 311,
      "<0x07>": 312,
      "<0x08>": 313,
      "<0x09>": 314,
      "<0x0A>": 315,
      "<0x0B>": 316,
      "<0x0C>": 317,
      "<0x0D>": 318,
      "<0x0E>": 319,
      "<0x0F>": 320,
      "<0x10>": 321,
      "<0x11>": 322,
      "<0x12>": 323,
      "<0x13>": 324,
      "<0x14>": 325,
      "<0x15>": 326,
      "<0x16>": 327,
      "<0x17>": 328,
      "<0x18>": 329,
      "<0x19>": 330,
      "<0x1A>": 331,
      "<0x1B>": 332,
      "<0x1C>": 333,
      "<0x1D>": 334,
      "<0x1E>": 335,
      "<0x1F>": 336,
      "<0x20>": 337,
      "<0x21>": 338,
      "<0x22>": 339,
      "<0x23>": 340,
      "<0x24>": 341,
      "<0x25>": 342,
      "<0x26>": 343,
      "<0x27>": 344,
      "<0x28>": 345,
      "<0x29>": 346,
      "<0x2A>": 347,
      "<0x2B>": 348,
      "<0x2C>": 349,
      "<0x2D>": 350,
      "<0x2E>": 351,
      "<0x2F>": 352,
      "<0x30>": 353,
      "<0x31>": 354,
      "<0x32>": 355,
      "<0x33>": 356,
      "<0x34>": 357,
      "<0x35>": 358,
      "<0x36>": 359,
      "<0x37>": 360,
      "<0x38>": 361,
      "<0x39>": 362,
      "<0x3A>": 363,
      "<0x3B>": 364,
      "<0x3C>": 365,
      "<0x3D>": 366,
      "<0x3E>": 367,
      "<0x3F>": 368,
      "<0x40>": 369,
      "<0x41>": 370,
      "<0x42>": 371,
      "<0x43>": 372,
      "<0x44>": 373,
      "<0x45>": 374,
      "<0x46>": 375,
      "<0x47>": 376,
      "<0x48>": 377,
      "<0x49>": 378,
      "<0x4A>": 379,
      "<0x4B>": 380,
      "<0x4C>": 381,
      "<0x4D>": 382,
      "<0x4E>": 383,
      "<0x4F>": 384,
      "<0x50>": 385,
      "<0x51>": 386,
      "<0x52>": 387,
      "<0x53>": 388,
      "<0x54>": 389,
      "<0x55>": 390,
      "<0x56>": 391,
      "<0x57>": 392,
      "<0x58>": 393,
      "<0x59>": 394,
      "<0x5A>": 395,
      "<0x5B>": 396,
      "<0x5C>": 397,
      "<0x5D>": 398,
      "<0x5E>": 399,
      "<0x5F>": 400,
      "<0x60>": 401,
      "<0x61>": 402,
      "<0x62>": 403,
      "<0x63>": 404,
      "<0x64>": 405,
      "<0x65>": 406,
      "<0x66>": 407,
      "<0x67>": 408,
      "<0x68>": 409,
      "<0x69>": 410,
      "<0x6A>": 411,
      "<0x6B>": 412,
      "<0x6C>": 413,
      "<0x6D>": 414,
      "<0x6E>": 415,
      "<0x6F>": 416,
      "<0x70>": 417,
      "<0x71>": 418,
      "<0x72>": 419,
      "<0x73>": 420,
      "<0x74>": 421,
      "<0x75>": 422,
      "<0x76>": 423,
      "<0x77>": 424,
      "<0x78>": 425,
      "<0x79>": 426,
      "<0x7A>": 427,
      "<0x7B>": 428,
      "<0x7C>": 429,
      "<0x7D>": 430,
      "<0x7E>": 431,
      "<0x7F>": 432,
      "<0x80>": 433,
      "<0x81>": 434,
      "<0x82>": 435,
      "<0x83>": 436,
      "<0x84>": 437,
      "<0x85>": 438,
      "<0x86>": 439,
      "<0x87>": 440,
      "<0x88>": 441,
      "<0x89>": 442,
      "<0x8A>": 443,
      "<0x8B>": 444,
      "<0x8C>": 445,
      "<0x8D>": 446,
      "<0x8E>": 447,
      "<0x8F>": 448,
      "<0x90>": 449,
      "<0x91>": 450,
      "<0x92>": 451,
      "<0x93>": 452,
      "<0x94>": 453,
      "<0x95>": 454,
      "<0x96>": 455,
      "<0x97>": 456,
      "<0x98>": 457,
      "<0x99>": 458,
      "<0x9A>": 459,
      "<0x9B>": 460,
      "<0x9C>": 461,
      "<0x9D>": 462,
      "<0x9E>": 463,
      "<0x9F>": 464,
      "<0xA0>": 465,
      "<0xA1>": 466,
      "<0xA2>": 467,
      "<0xA3>": 468,
      "<0xA4>": 469,
      "<0xA5>": 470,
      "<0xA6>": 471,
      "<0xA7>": 472,
      "<0xA8>": 473,
      "<0xA9>": 474,
      "<0xAA>": 475,
      "<0xAB>": 476,
      "<0xAC>": 477,
      "<0xAD>": 478,
      "<0xAE>": 479,
      "<0xAF>": 480,
      "<0xB0>": 481,
      "<0xB1>": 482,
      "<0xB2>": 483,
      "<0xB3>": 484,
      "<0xB4>": 485,
      "<0xB5>": 486,
      "<0xB6>": 487,
      "<0xB7>": 488,
      "<0xB8>": 489,
      "<0xB9>": 490,
      "<0xBA>": 491,
      "<0xBB>": 492,
      "<0xBC>": 493,
      "<0xBD>": 494,
      "<0xBE>": 495,
      "<0xBF>": 496,
      "<0xC0>": 497,
      "<0xC1>": 498,
      "<0xC2>": 499,
      "<0xC3>": 500,
      "<0xC4>": 501,
      "<0xC5>": 502,
      "<0xC6>": 503,
      "<0xC7>": 504,
      "<0xC8>": 505,
      "<0xC9>": 506,
      "<0xCA>": 507,
      "<0xCB>": 508,
      "<0xCC>": 509,
      "<0xCD>": 510,
      "<0xCE>": 511,
      "<0xCF>": 512,
      "<0xD0>": 513,
      "<0xD1>": 514,
      "<0xD2>": 515,
      "<0xD3>": 516,
      "<0xD4>": 517,
      "<0xD5>": 518,
      "<0xD6>": 519,
      "<0xD7>": 520,
      "<0xD8>": 521,
      "<0xD9>": 522,
      "<0xDA>": 523,
      "<0xDB>": 524,
      "<0xDC>": 525,
      "<0xDD>": 526,
      "<0xDE>": 527,
      "<0xDF>": 528,
      "<0xE0>": 529,
      "<0xE1>": 530,
      "<0xE2>": 531,
      "<0xE3>": 532,
      "<0xE4>": 533,
      "<0xE5>": 534,
      "<0xE6>": 535,
      "<0xE7>": 536,
      "<0xE8>": 537,
      "<0xE9>": 538,
      "<0xEA>": 539,
      "<0xEB>": 540,
      "<0xEC>": 541,
      "<0xED>": 542,
      "<0xEE>": 543,
      "<0xEF>": 544,
      "<0xF0>": 545,
      "<0xF1>": 546,
      "<0xF2>": 547,
      "<0xF3>": 548,
      "<0xF4>": 549,
      "<0xF5>": 550,
      "<0xF6>": 551,
      "<0xF7>": 552,
      "<0xF8>": 553,
      "<0xF9>": 554,
      "<0xFA>": 555,
      "<0xFB>": 556,
      "<0xFC>": 557,
      "<0xFD>": 558,
      "<0xFE>": 559,
      "<0xFF>": 560,
      "▁t": 561,
      "▁a": 562,
      "in": 563,
      "he": 564,
      "re": 565,
      "on": 566,
      "▁the": 567,
      "er": 568,
      "at": 569,
      "▁s": 570,
      "en": 571,
      "▁w": 572,
      "▁o": 573,
      "it": 574,
      "▁c": 575,
      "or": 576,
      "is": 577,
      "es": 578,
      "nd": 579,
      "▁f": 580,
      "ou": 581,
      "▁b": 582,
      "ing": 583,
      "ed": 584,
      "\\\\": 585,
      "al": 586,
      "▁p": 587,
      "ar": 588,
      "an": 589,
      "▁m": 590,
      "le": 591,
      "▁to": 592,
      "▁of": 593,
      "▁in": 594,
      "▁d": 595,
      "ion": 596,
      "▁and": 597,
      "ic": 598,
      "as": 599,
      "om": 600,
      "▁th": 601,
      "▁h": 602,
      "ent": 603,
      "il": 604,
      "el": 605,
      "et": 606,
      "ro": 607,
      "st": 608,
      "▁n": 609,
      "▁l": 610,
      "ct": 611,
      "▁re": 612,
      "ve": 613,
      "am": 614,
      "▁e": 615,
      "▁I": 616,
      "▁g": 617,
      "ot": 618,
      "id": 619,
      "▁is": 620,
      "ut": 621,
      "im": 622,
      "ig": 623,
      "ow": 624,
      "ra": 625,
      "▁y": 626,
      "ly": 627,
      "ce": 628,
      "▁be": 629,
      "▁T": 630,
      "▁for": 631,
      "▁on": 632,
      "us": 633,
      "ur": 634,
      "\\\"": 635,
      "ol": 636,
      "ation": 637,
      "ay": 638,
      "▁that": 639,
      "ver": 640,
      "▁you": 641,
      "ch": 642,
      "▁S": 643,
      "ad": 644,
      "▁st": 645,
      "ith": 646,
      "▁A": 647,
      "▁it": 648,
      "se": 649,
      "▁C": 650,
      "▁with": 651,
      "ul": 652,
      "nt": 653,
      "▁$": 654,
      "if": 655,
      "ir": 656,
      "od": 657,
      "ab": 658,
      "▁as": 659,
      "▁he": 660,
      "▁al": 661,
      "▁(": 662,
      "▁an": 663,
      "▁wh": 664,
      "▁\\\\": 665,
      "▁we": 666,
      "ht": 667,
      "un": 668,
      "\":": 669,
      "▁M": 670,
      "ge": 671,
      "qu": 672,
      "▁con": 673,
      "up": 674,
      "ess": 675,
      "▁ha": 676,
      "ke": 677,
      "▁are": 678,
      "ill": 679,
      "ter": 680,
      "um": 681,
      "ri": 682,
      "▁pro": 683,
      "em": 684,
      "ck": 685,
      "cc": 686,
      "ate": 687,
      "\":\"": 688,
      "ers": 689,
      "▁B": 690,
      "ile": 691,
      "art": 692,
      "est": 693,
      "▁P": 694,
      "her": 695,
      "ore": 696,
      "ld": 697,
      "op": 698,
      "▁com": 699,
      "th": 700,
      "end": 701,
      "▁at": 702,
      "pl": 703,
      "ist": 704,
      "▁or": 705,
      "ure": 706,
      "▁The": 707,
      "ect": 708,
      "rom": 709,
      "▁W": 710,
      "▁ex": 711,
      "}\\": 712,
      "▁v": 713,
      "ew": 714,
      "▁H": 715,
      "▁de": 716,
      "▁was": 717,
      "os": 718,
      "▁this": 719,
      "▁se": 720,
      "▁F": 721,
      "ight": 722,
      "▁D": 723,
      "ity": 724,
      "ame": 725,
      "▁have": 726,
      "ant": 727,
      "▁not": 728,
      "ment": 729,
      "ain": 730,
      "▁r": 731,
      "con": 732,
      "ort": 733,
      "iv": 734,
      "red": 735,
      "ata": 736,
      "▁by": 737,
      "▁R": 738,
      "our": 739,
      "res": 740,
      "▁sh": 741,
      "▁from": 742,
      "and": 743,
      "ap": 744,
      "▁us": 745,
      "ive": 746,
      "ust": 747,
      "▁can": 748,
      "nT": 749,
      "▁L": 750,
      "ould": 751,
      "▁N": 752,
      "ies": 753,
      "out": 754,
      "all": 755,
      "▁G": 756,
      "▁ch": 757,
      ";\\": 758,
      "_{": 759,
      "ome": 760,
      "ally": 761,
      "▁=": 762,
      "ub": 763,
      "▁E": 764,
      "ass": 765,
      "ud": 766,
      "te": 767,
      "▁le": 768,
      "ag": 769,
      "ction": 770,
      "▁do": 771,
      "pp": 772,
      "▁ab": 773,
      "ine": 774,
      "ost": 775,
      "ard": 776,
      "cl": 777,
      "data": 778,
      "▁ne": 779,
      "pa": 780,
      "ell": 781,
      "iz": 782,
      "ite": 783,
      "▁j": 784,
      "pt": 785,
      "▁all": 786,
      "▁will": 787,
      "▁your": 788,
      "▁k": 789,
      "▁wor": 790,
      "▁lo": 791,
      "▁O": 792,
      "rou": 793,
      "pe": 794,
      "▁me": 795,
      "▁but": 796,
      "ok": 797,
      "▁pl": 798,
      "▁whe": 799,
      "ak": 800,
      "▁go": 801,
      "ial": 802,
      "ff": 803,
      "ack": 804,
      "ast": 805,
      "ide": 806,
      "age": 807,
      "lo": 808,
      "pro": 809,
      "▁so": 810,
      "tent": 811,
      "ich": 812,
      "ind": 813,
      "{\\\\": 814,
      "▁has": 815,
      "ue": 816,
      "ime": 817,
      "per": 818,
      "nI": 819,
      "▁\\\"": 820,
      "ear": 821,
      ":/": 822,
      "▁out": 823,
      "one": 824,
      "com": 825,
      "▁my": 826,
      "ther": 827,
      "▁up": 828,
      "ult": 829,
      "ice": 830,
      "able": 831,
      "ath": 832,
      "port": 833,
      "orm": 834,
      "ated": 835,
      "rain": 836,
      "ph": 837,
      "▁they": 838,
      "▁-": 839,
      "ac": 840,
      "▁J": 841,
      "▁\\": 842,
      "nThe": 843,
      "so": 844,
      "▁cl": 845,
      "▁ad": 846,
      ")\\": 847,
      "ong": 848,
      "ans": 849,
      "ions": 850,
      "ry": 851,
      "xt": 852,
      "▁one": 853,
      "pile": 854,
      "▁li": 855,
      "very": 856,
      "▁en": 857,
      "▁im": 858,
      "ake": 859,
      "▁comp": 860,
      "gh": 861,
      "to": 862,
      "▁more": 863,
      "▁res": 864,
      "ase": 865,
      "ous": 866,
      "▁U": 867,
      "content": 868,
      "ep": 869,
      "eg": 870,
      "are": 871,
      "▁$\\\\": 872,
      "ip": 873,
      "ber": 874,
      "{\"": 875,
      "nA": 876,
      "int": 877,
      "▁which": 878,
      "ign": 879,
      "__": 880,
      "▁their": 881,
      "▁Th": 882,
      "▁about": 883,
      "cess": 884,
      "ations": 885,
      "du": 886,
      "og": 887,
      "act": 888,
      "▁&": 889,
      "\"}": 890,
      "ib": 891,
      "av": 892,
      "▁his": 893,
      "ach": 894,
      "ance": 895,
      "▁who": 896,
      "ens": 897,
      "ary": 898,
      "ail": 899,
      "▁get": 900,
      "▁qu": 901,
      "**": 902,
      "ely": 903,
      "und": 904,
      "ft": 905,
      "ie": 906,
      "ical": 907,
      "son": 908,
      "▁if": 909,
      "ire": 910,
      "▁un": 911,
      "ere": 912,
      "uch": 913,
      "▁cont": 914,
      "▁our": 915,
      "▁any": 916,
      "own": 917,
      "ang": 918,
      "▁some": 919,
      "form": 920,
      "▁ev": 921,
      "▁time": 922,
      "▁per": 923,
      "▁other": 924,
      "ount": 925,
      "▁there": 926,
      ");\\": 927,
      "ll": 928,
      "▁man": 929,
      "ence": 930,
      "▁would": 931,
      "▁work": 932,
      "ink": 933,
      "ition": 934,
      "▁sa": 935,
      "ia": 936,
      "▁dis": 937,
      "}$": 938,
      "ru": 939,
      "abel": 940,
      "ord": 941,
      "part": 942,
      "▁sc": 943,
      "ick": 944,
      "ree": 945,
      "▁kn": 946,
      "▁like": 947,
      "▁K": 948,
      "train": 949,
      "▁when": 950,
      "ress": 951,
      "▁new": 952,
      "file": 953,
      "ays": 954,
      "fil": 955,
      "▁part": 956,
      "}\\\\": 957,
      "▁ag": 958,
      "ref": 959,
      "▁“": 960,
      "▁been": 961,
      "▁also": 962,
      "we": 963,
      "^{": 964,
      "▁off": 965,
      "▁te": 966,
      "▁In": 967,
      "▁sp": 968,
      "ource": 969,
      "▁just": 970,
      "▁Y": 971,
      "▁them": 972,
      "erv": 973,
      "ound": 974,
      "▁ar": 975,
      "nS": 976,
      "ents": 977,
      "▁were": 978,
      "label": 979,
      "▁over": 980,
      "▁what": 981,
      "ark": 982,
      "▁It": 983,
      "ose": 984,
      "urn": 985,
      "▁had": 986,
      "use": 987,
      "ings": 988,
      "▁than": 989,
      "▁year": 990,
      "math": 991,
      "{\\": 992,
      "nW": 993,
      "▁app": 994,
      "ild": 995,
      "vel": 996,
      "ace": 997,
      "ded": 998,
      "▁pe": 999,
      "reat": 1000,
      ":\\": 1001,
      "ename": 1002,
      "▁tr": 1003,
      "ma": 1004,
      "ama": 1005,
      "ors": 1006,
      "row": 1007,
      "▁V": 1008,
      "filename": 1009,
      "▁no": 1010,
      "ple": 1011,
      "json": 1012,
      "ory": 1013,
      "wo": 1014,
      "irst": 1015,
      "▁St": 1016,
      "ef": 1017,
      "oc": 1018,
      "▁her": 1019,
      "low": 1020,
      "tp": 1021,
      "iff": 1022,
      "ne": 1023,
      "fs": 1024,
      "▁co": 1025,
      "rac": 1026,
      "old": 1027,
      "get": 1028,
      "▁into": 1029,
      "ople": 1030,
      "plit": 1031,
      "ject": 1032,
      "▁fe": 1033,
      "▁its": 1034,
      "▁only": 1035,
      "▁bec": 1036,
      "clud": 1037,
      "db": 1038,
      "▁ro": 1039,
      "▁how": 1040,
      "▁pre": 1041,
      "cal": 1042,
      "fter": 1043,
      "vers": 1044,
      "egin": 1045,
      "ause": 1046,
      "▁bet": 1047,
      "ict": 1048,
      "▁need": 1049,
      "▁mod": 1050,
      "eth": 1051,
      "//": 1052,
      "begin": 1053,
      "source": 1054,
      "ates": 1055,
      "▁acc": 1056,
      "jama": 1057,
      "mnt": 1058,
      "vep": 1059,
      "▁Ch": 1060,
      "ug": 1061,
      "vepfs": 1062,
      "elf": 1063,
      "▁am": 1064,
      "▁people": 1065,
      "process": 1066,
      "▁said": 1067,
      "ci": 1068,
      "▁po": 1069,
      "split": 1070,
      "://": 1071,
      "ces": 1072,
      "itt": 1073,
      "▁two": 1074,
      "一个": 1075,
      "==": 1076,
      "▁bo": 1077,
      "ish": 1078,
      "▁We": 1079,
      "▁first": 1080,
      "ix": 1081,
      "▁know": 1082,
      "text": 1083,
      "▁des": 1084,
      "rib": 1085,
      "▁diff": 1086,
      "ta": 1087,
      "processed": 1088,
      "cite": 1089,
      "owt": 1090,
      "dedup": 1091,
      "mer": 1092,
      "ty": 1093,
      "pajama": 1094,
      "redpajama": 1095,
      "pect": 1096,
      "ian": 1097,
      "hat": 1098,
      "ob": 1099,
      "ual": 1100,
      "ov": 1101,
      "▁sup": 1102,
      "▁sy": 1103,
      "ough": 1104,
      "▁she": 1105,
      "ond": 1106,
      "}{": 1107,
      "ubl": 1108,
      "▁ob": 1109,
      "ning": 1110,
      "▁'": 1111,
      "▁und": 1112,
      "ys": 1113,
      "round": 1114,
      "ener": 1115,
      "▁may": 1116,
      "▁This": 1117,
      "▁cons": 1118,
      "igh": 1119,
      "ics": 1120,
      "erm": 1121,
      "▁back": 1122,
      "▁see": 1123,
      "fig": 1124,
      "▁want": 1125,
      "▁then": 1126,
      "ons": 1127,
      "vi": 1128,
      "cent": 1129,
      "▁spe": 1130,
      "(\\\\": 1131,
      "ove": 1132,
      "ange": 1133,
      "hed": 1134,
      "ert": 1135,
      "http": 1136,
      "ring": 1137,
      "我们": 1138,
      "=\\\"": 1139,
      "equ": 1140,
      "lect": 1141,
      "▁every": 1142,
      "ble": 1143,
      "▁inter": 1144,
      "ex": 1145,
      "▁set": 1146,
      "▁ind": 1147,
      "ater": 1148,
      "▁use": 1149,
      "▁make": 1150,
      "▁where": 1151,
      "▁ph": 1152,
      "ng": 1153,
      "▁these": 1154,
      "▁comm": 1155,
      "▁most": 1156,
      "▁tra": 1157,
      "▁could": 1158,
      "ks": 1159,
      "ts": 1160,
      "▁ra": 1161,
      "ating": 1162,
      "cre": 1163,
      "▁look": 1164,
      "▁col": 1165,
      "nC": 1166,
      "ize": 1167,
      ">\\": 1168,
      "stem": 1169,
      "ular": 1170,
      "iss": 1171,
      "▁{\\": 1172,
      "▁rel": 1173,
      "})": 1174,
      "▁act": 1175,
      "ific": 1176,
      "ns": 1177,
      "ise": 1178,
      "oth": 1179,
      "rough": 1180,
      "自己": 1181,
      "▁don": 1182,
      "ari": 1183,
      "▁+": 1184,
      "▁pos": 1185,
      "▁em": 1186,
      "ature": 1187,
      "right": 1188,
      "▁under": 1189,
      "ram": 1190,
      "▁well": 1191,
      "ps": 1192,
      "frac": 1193,
      "nF": 1194,
      "les": 1195,
      "▁very": 1196,
      "the": 1197,
      "ull": 1198,
      "▁because": 1199,
      "▁think": 1200,
      "ments": 1201,
      "wn": 1202,
      "ced": 1203,
      "▁after": 1204,
      "▁play": 1205,
      "▁should": 1206,
      "line": 1207,
      "_{\\\\": 1208,
      "▁reg": 1209,
      "▁hel": 1210,
      "class": 1211,
      "▁even": 1212,
      "▁fun": 1213,
      "▁He": 1214,
      "imes": 1215,
      "▁now": 1216,
      "▁way": 1217,
      "▁prov": 1218,
      "bo": 1219,
      "nM": 1220,
      "ade": 1221,
      "day": 1222,
      "▁differe": 1223,
      "▁show": 1224,
      "▁class": 1225,
      "▁good": 1226,
      "▁sim": 1227,
      "▁through": 1228,
      "可以": 1229,
      "nB": 1230,
      "ible": 1231,
      "▁sm": 1232,
      "▁did": 1233,
      "工作": 1234,
      "▁add": 1235,
      "▁i": 1236,
      "ution": 1237,
      "ec": 1238,
      "▁def": 1239,
      "rm": 1240,
      "}}": 1241,
      "▁pr": 1242,
      "iel": 1243,
      "ublic": 1244,
      "rit": 1245,
      "ility": 1246,
      "ood": 1247,
      "of": 1248,
      "ting": 1249,
      "▁ke": 1250,
      "oy": 1251,
      "▁bu": 1252,
      "▁such": 1253,
      "turn": 1254,
      "ased": 1255,
      "ax": 1256,
      "▁him": 1257,
      "▁rem": 1258,
      "ode": 1259,
      "aw": 1260,
      "▁val": 1261,
      "ful": 1262,
      "The": 1263,
      ")$": 1264,
      "▁num": 1265,
      "nH": 1266,
      "ied": 1267,
      "ities": 1268,
      "▁does": 1269,
      "▁sub": 1270,
      "ww": 1271,
      "▁much": 1272,
      "▁[": 1273,
      "ollow": 1274,
      "fore": 1275,
      "▁inst": 1276,
      "ss": 1277,
      "▁inv": 1278,
      "cial": 1279,
      "itle": 1280,
      "ues": 1281,
      "▁includ": 1282,
      "”\\": 1283,
      "▁many": 1284,
      "its": 1285,
      "pos": 1286,
      "▁start": 1287,
      "▁right": 1288,
      "▁–": 1289,
      "nP": 1290,
      "par": 1291,
      "ork": 1292,
      "▁produ": 1293,
      "ont": 1294,
      "ily": 1295,
      "ife": 1296,
      "▁fin": 1297,
      "на": 1298,
      "▁years": 1299,
      "als": 1300,
      "other": 1301,
      "aking": 1302,
      "ative": 1303,
      "eq": 1304,
      "▁eff": 1305,
      "ield": 1306,
      "▁*": 1307,
      "▁gu": 1308,
      "▁att": 1309,
      "▁down": 1310,
      "ident": 1311,
      "hen": 1312,
      "ices": 1313,
      "▁help": 1314,
      "ince": 1315,
      "▁used": 1316,
      "()": 1317,
      "ern": 1318,
      "sh": 1319,
      "▁again": 1320,
      "bf": 1321,
      "ower": 1322,
      "▁trans": 1323,
      "▁stud": 1324,
      "▁being": 1325,
      "▁read": 1326,
      "没有": 1327,
      "▁system": 1328,
      "ption": 1329,
      "▁point": 1330,
      "▁ent": 1331,
      "▁find": 1332,
      "url": 1333,
      "ray": 1334,
      "riv": 1335,
      "pr": 1336,
      "▁long": 1337,
      "▁result": 1338,
      "▁You": 1339,
      "nO": 1340,
      "▁pres": 1341,
      "▁exper": 1342,
      "▁each": 1343,
      "ween": 1344,
      "▁det": 1345,
      "read": 1346,
      "▁follow": 1347,
      "unt": 1348,
      "▁cor": 1349,
      "\\\"\\": 1350,
      "ward": 1351,
      "atch": 1352,
      "▁som": 1353,
      "▁end": 1354,
      "equation": 1355,
      "▁form": 1356,
      "hes": 1357,
      "erson": 1358,
      "</": 1359,
      "ient": 1360,
      "▁ass": 1361,
      "ational": 1362,
      "▁bel": 1363,
      "▁here": 1364,
      "ract": 1365,
      "nce": 1366,
      "▁those": 1367,
      "▁same": 1368,
      "▁rec": 1369,
      "ool": 1370,
      "nIn": 1371,
      "▁pol": 1372,
      "self": 1373,
      "▁high": 1374,
      "▁gener": 1375,
      "▁different": 1376,
      "ever": 1377,
      "olog": 1378,
      "put": 1379,
      "▁int": 1380,
      "ually": 1381,
      "nD": 1382,
      "▁fl": 1383,
      "raph": 1384,
      "ave": 1385,
      "▁su": 1386,
      "\\\\\\": 1387,
      "▁call": 1388,
      "der": 1389,
      "arch": 1390,
      "ash": 1391,
      "▁great": 1392,
      "▁If": 1393,
      "▁data": 1394,
      "▁And": 1395,
      "▁model": 1396,
      "▁between": 1397,
      "sc": 1398,
      "his": 1399,
      "uring": 1400,
      "cy": 1401,
      "▁own": 1402,
      "▁really": 1403,
      "▁min": 1404,
      "▁before": 1405,
      "arg": 1406,
      "de": 1407,
      "▁dec": 1408,
      "rent": 1409,
      "▁take": 1410,
      "▁cur": 1411,
      "log": 1412,
      "ages": 1413,
      "ason": 1414,
      "~\\\\": 1415,
      "▁dist": 1416,
      "▁requ": 1417,
      "▁inte": 1418,
      "ek": 1419,
      "formation": 1420,
      "let": 1421,
      "▁bl": 1422,
      "▁using": 1423,
      "公司": 1424,
      "io": 1425,
      "▁last": 1426,
      "▁sur": 1427,
      "ited": 1428,
      "▁ext": 1429,
      "▁mon": 1430,
      "any": 1431,
      "▁giv": 1432,
      "title": 1433,
      "St": 1434,
      "ner": 1435,
      "▁while": 1436,
      "ven": 1437,
      "▁function": 1438,
      "▁serv": 1439,
      "alk": 1440,
      "▁say": 1441,
      "▁made": 1442,
      "cond": 1443,
      "ric": 1444,
      "ank": 1445,
      "▁ac": 1446,
      "nL": 1447,
      "▁day": 1448,
      "▁Un": 1449,
      "▁going": 1450,
      "▁still": 1451,
      "▁count": 1452,
      "ppl": 1453,
      "be": 1454,
      "pace": 1455,
      "中国": 1456,
      "ms": 1457,
      "▁real": 1458,
      "就是": 1459,
      "rest": 1460,
      "▁che": 1461,
      "nN": 1462,
      "ots": 1463,
      "pen": 1464,
      "▁ins": 1465,
      "eta": 1466,
      "▁sign": 1467,
      "atter": 1468,
      "velop": 1469,
      "left": 1470,
      "ER": 1471,
      "way": 1472,
      "here": 1473,
      "▁hand": 1474,
      "led": 1475,
      "ews": 1476,
      "nR": 1477,
      "▁car": 1478,
      "▁str": 1479,
      "▁both": 1480,
      "ead": 1481,
      "▁run": 1482,
      "▁ref": 1483,
      "ren": 1484,
      "▁best": 1485,
      "]\\": 1486,
      "ier": 1487,
      "ype": 1488,
      "ines": 1489,
      "ized": 1490,
      "ection": 1491,
      "air": 1492,
      "ruct": 1493,
      "▁But": 1494,
      "iness": 1495,
      "▁sol": 1496,
      "ho": 1497,
      "ght": 1498,
      "gy": 1499,
      "ets": 1500,
      "▁around": 1501,
      "▁fact": 1502,
      "ike": 1503,
      "▁world": 1504,
      "▁number": 1505,
      "ering": 1506,
      "ather": 1507,
      "for": 1508,
      "▁As": 1509,
      "ator": 1510,
      "uss": 1511,
      "over": 1512,
      "akes": 1513,
      "▁person": 1514,
      "▁post": 1515,
      "▁For": 1516,
      "err": 1517,
      "bs": 1518,
      "irect": 1519,
      "▁const": 1520,
      "▁appro": 1521,
      "ically": 1522,
      "uth": 1523,
      "▁ser": 1524,
      "▁disc": 1525,
      "▁cre": 1526,
      "nw": 1527,
      "▁too": 1528,
      "▁\"": 1529,
      "▁found": 1530,
      "▁proble": 1531,
      "ann": 1532,
      "ote": 1533,
      "▁par": 1534,
      "▁Al": 1535,
      "▁exp": 1536,
      "}(": 1537,
      "amb": 1538,
      "ody": 1539,
      "进行": 1540,
      "nc": 1541,
      "tain": 1542,
      "▁life": 1543,
      "▁bus": 1544,
      "▁equ": 1545,
      "▁Com": 1546,
      "da": 1547,
      "▁с": 1548,
      "ures": 1549,
      "ee": 1550,
      "▁fam": 1551,
      "$\\\\": 1552,
      "::": 1553,
      "什么": 1554,
      "set": 1555,
      "ving": 1556,
      "nE": 1557,
      "ience": 1558,
      "ined": 1559,
      "▁char": 1560,
      "##": 1561,
      "▁feel": 1562,
      "pha": 1563,
      "ins": 1564,
      "gan": 1565,
      "▁vari": 1566,
      "▁lead": 1567,
      "ists": 1568,
      "▁happ": 1569,
      "ething": 1570,
      "ness": 1571,
      "alth": 1572,
      "▁few": 1573,
      "riend": 1574,
      "他们": 1575,
      "eng": 1576,
      "ames": 1577,
      "ample": 1578,
      "▁av": 1579,
      "▁mem": 1580,
      "▁<": 1581,
      "▁Pro": 1582,
      "thing": 1583,
      "ouse": 1584,
      "▁information": 1585,
      "▁vi": 1586,
      "roup": 1587,
      "return": 1588,
      "ved": 1589,
      "ittle": 1590,
      "ale": 1591,
      "▁partic": 1592,
      "▁prog": 1593,
      "vent": 1594,
      "▁{": 1595,
      "▁ed": 1596,
      "▁med": 1597,
      "->": 1598,
      "chool": 1599,
      "cept": 1600,
      "arn": 1601,
      "ute": 1602,
      "ton": 1603,
      "▁three": 1604,
      "ways": 1605,
      "▁mark": 1606,
      "▁import": 1607,
      "▁fil": 1608,
      "ars": 1609,
      "这个": 1610,
      "▁case": 1611,
      "nWe": 1612,
      "▁things": 1613,
      "▁support": 1614,
      "▁small": 1615,
      "less": 1616,
      "bb": 1617,
      "arly": 1618,
      "alpha": 1619,
      "▁inf": 1620,
      "▁process": 1621,
      "▁state": 1622,
      "▁develop": 1623,
      "ethod": 1624,
      "IN": 1625,
      "▁poss": 1626,
      "发展": 1627,
      "▁try": 1628,
      "amp": 1629,
      "apt": 1630,
      "ired": 1631,
      "▁art": 1632,
      "▁el": 1633,
      "▁since": 1634,
      "▁something": 1635,
      "****": 1636,
      "ock": 1637,
      "▁cle": 1638,
      "ни": 1639,
      "man": 1640,
      "▁line": 1641,
      "▁home": 1642,
      "idth": 1643,
      "ense": 1644,
      "▁top": 1645,
      "▁effect": 1646,
      "chn": 1647,
      "▁They": 1648,
      "ves": 1649,
      "问题": 1650,
      "val": 1651,
      "ross": 1652,
      "▁eas": 1653,
      "ctions": 1654,
      "▁game": 1655,
      "▁got": 1656,
      "ider": 1657,
      "ious": 1658,
      "}^": 1659,
      "▁vis": 1660,
      "lease": 1661,
      "hip": 1662,
      "▁team": 1663,
      "▁Re": 1664,
      "▁better": 1665,
      "▁wr": 1666,
      "nthe": 1667,
      "ought": 1668,
      "▁second": 1669,
      "▁little": 1670,
      "ality": 1671,
      "▁п": 1672,
      "▁cour": 1673,
      "sub": 1674,
      "meric": 1675,
      "ON": 1676,
      "uc": 1677,
      "ization": 1678,
      "▁list": 1679,
      "时间": 1680,
      "▁week": 1681,
      "▁test": 1682,
      "nThis": 1683,
      "▁expl": 1684,
      "ger": 1685,
      "▁sl": 1686,
      "▁book": 1687,
      "mp": 1688,
      "section": 1689,
      "▁на": 1690,
      "▁without": 1691,
      "▁rep": 1692,
      "elta": 1693,
      "▁order": 1694,
      "ра": 1695,
      "land": 1696,
      "▁conf": 1697,
      "}_": 1698,
      "min": 1699,
      "▁place": 1700,
      "ah": 1701,
      "的人": 1702,
      "▁perform": 1703,
      "mathcal": 1704,
      "view": 1705,
      "oot": 1706,
      "nf": 1707,
      "▁gra": 1708,
      "▁never": 1709,
      "▁put": 1710,
      "ism": 1711,
      "▁stat": 1712,
      "ases": 1713,
      "▁let": 1714,
      "▁design": 1715,
      "▁another": 1716,
      "▁allow": 1717,
      "yp": 1718,
      "▁interest": 1719,
      "=\\\\": 1720,
      "ional": 1721,
      "▁iss": 1722,
      "▁child": 1723,
      "▁next": 1724,
      "▁open": 1725,
      "inal": 1726,
      "▁keep": 1727,
      "因为": 1728,
      "ron": 1729,
      "rid": 1730,
      "ik": 1731,
      "ives": 1732,
      "▁term": 1733,
      "▁always": 1734,
      ")\\\\": 1735,
      "oid": 1736,
      "▁hard": 1737,
      "孩子": 1738,
      "▁cent": 1739,
      "▁main": 1740,
      "▁big": 1741,
      "▁How": 1742,
      "▁lot": 1743,
      "ively": 1744,
      "ertain": 1745,
      "如果": 1746,
      "▁sk": 1747,
      "▁quest": 1748,
      "ivers": 1749,
      "▁seem": 1750,
      "▁care": 1751,
      "时候": 1752,
      "att": 1753,
      "▁appl": 1754,
      "▁incre": 1755,
      "not": 1756,
      "▁pass": 1757,
      "▁tri": 1758,
      "▁:": 1759,
      "то": 1760,
      "▁Q": 1761,
      "▁ide": 1762,
      "▁love": 1763,
      "▁contin": 1764,
      "AT": 1765,
      "▁An": 1766,
      "(\\\"": 1767,
      "▁business": 1768,
      "raw": 1769,
      "▁come": 1770,
      "▁might": 1771,
      "ambda": 1772,
      "▁during": 1773,
      "▁product": 1774,
      "▁commun": 1775,
      "arge": 1776,
      "lock": 1777,
      "dd": 1778,
      "▁free": 1779,
      "▁month": 1780,
      "▁stand": 1781,
      "▁resp": 1782,
      "ST": 1783,
      "▁Americ": 1784,
      "▁Sh": 1785,
      "▁power": 1786,
      "不是": 1787,
      "▁/": 1788,
      "▁provid": 1789,
      "net": 1790,
      "ants": 1791,
      "▁So": 1792,
      "sp": 1793,
      "oint": 1794,
      "▁field": 1795,
      "mu": 1796,
      "▁rest": 1797,
      "amma": 1798,
      "та": 1799,
      "▁must": 1800,
      "arm": 1801,
      "▁report": 1802,
      "ott": 1803,
      "▁non": 1804,
      "ral": 1805,
      "▁head": 1806,
      "▁plan": 1807,
      "▁|": 1808,
      "▁friend": 1809,
      "▁spec": 1810,
      "stand": 1811,
      "▁x": 1812,
      "▁sure": 1813,
      "▁est": 1814,
      "▁name": 1815,
      "ately": 1816,
      "col": 1817,
      "生活": 1818,
      "▁adv": 1819,
      "▁pur": 1820,
      "pi": 1821,
      "bers": 1822,
      "企业": 1823,
      "rol": 1824,
      "▁dep": 1825,
      "▁program": 1826,
      "▁level": 1827,
      "ency": 1828,
      "▁current": 1829,
      "▁value": 1830,
      "▁turn": 1831,
      "nG": 1832,
      "ably": 1833,
      "通过": 1834,
      "work": 1835,
      "uck": 1836,
      "====": 1837,
      "▁Se": 1838,
      "▁mov": 1839,
      "▁bre": 1840,
      "_\\\\": 1841,
      "prob": 1842,
      "▁direct": 1843,
      "▁oper": 1844,
      "figure": 1845,
      "oh": 1846,
      "-\\\\": 1847,
      "ered": 1848,
      "igma": 1849,
      "ware": 1850,
      "▁old": 1851,
      "RE": 1852,
      "ision": 1853,
      "www": 1854,
      "▁cou": 1855,
      "▁feature": 1856,
      "▁method": 1857,
      "▁given": 1858,
      "ym": 1859,
      "('": 1860,
      "可能": 1861,
      "▁less": 1862,
      "▁give": 1863,
      "▁De": 1864,
      "arc": 1865,
      "▁ask": 1866,
      "需要": 1867,
      "app": 1868,
      "tern": 1869,
      "ccess": 1870,
      "▁sing": 1871,
      "ustom": 1872,
      "▁di": 1873,
      "▁proper": 1874,
      "▁belie": 1875,
      "▁New": 1876,
      "▁against": 1877,
      "▁techn": 1878,
      "ify": 1879,
      "▁build": 1880,
      "ten": 1881,
      "iqu": 1882,
      "ability": 1883,
      "ital": 1884,
      "}^{": 1885,
      "ural": 1886,
      "▁Cl": 1887,
      "ology": 1888,
      "▁There": 1889,
      "▁project": 1890,
      "cri": 1891,
      "amet": 1892,
      "服务": 1893,
      "aj": 1894,
      "ailable": 1895,
      "▁z": 1896,
      "ml": 1897,
      "by": 1898,
      "▁present": 1899,
      "oss": 1900,
      "oney": 1901,
      "vious": 1902,
      "▁X": 1903,
      "▁fr": 1904,
      "ished": 1905,
      "ope": 1906,
      "▁opt": 1907,
      "ication": 1908,
      "▁wom": 1909,
      "▁Wh": 1910,
      "▁problem": 1911,
      "▁cho": 1912,
      "第一": 1913,
      "▁del": 1914,
      "ream": 1915,
      "▁train": 1916,
      "med": 1917,
      "▁able": 1918,
      "▁thing": 1919,
      "ration": 1920,
      "ety": 1921,
      "▁expect": 1922,
      "▁school": 1923,
      "▁results": 1924,
      "▁cond": 1925,
      "▁following": 1926,
      "▁beh": 1927,
      "ential": 1928,
      "comm": 1929,
      "me": 1930,
      "nY": 1931,
      "ask": 1932,
      "this": 1933,
      "▁и": 1934,
      "icle": 1935,
      "mid": 1936,
      "itions": 1937,
      "▁rece": 1938,
      "▁ener": 1939,
      "已经": 1940,
      "▁important": 1941,
      "▁ele": 1942,
      "ission": 1943,
      "▁inc": 1944,
      "▁opp": 1945,
      "sum": 1946,
      "ery": 1947,
      "ified": 1948,
      "▁в": 1949,
      "az": 1950,
      "nIt": 1951,
      "管理": 1952,
      "所以": 1953,
      "ior": 1954,
      "AR": 1955,
      "▁change": 1956,
      "orn": 1957,
      "\":\"__": 1958,
      "但是": 1959,
      "▁Z": 1960,
      "▁light": 1961,
      "▁met": 1962,
      "▁pay": 1963,
      "▁She": 1964,
      "▁comple": 1965,
      "▁public": 1966,
      "els": 1967,
      "\\\">": 1968,
      "ush": 1969,
      "phi": 1970,
      "▁prob": 1971,
      "▁Is": 1972,
      "▁full": 1973,
      "ling": 1974,
      "▁sit": 1975,
      "▁pop": 1976,
      "这样": 1977,
      "▁net": 1978,
      "▁law": 1979,
      "▁grow": 1980,
      "▁anal": 1981,
      "na": 1982,
      "的一": 1983,
      "▁Int": 1984,
      "vert": 1985,
      "▁mean": 1986,
      "▁unt": 1987,
      "▁why": 1988,
      "▁That": 1989,
      "}_{": 1990,
      "eps": 1991,
      "reen": 1992,
      "▁gover": 1993,
      "ds": 1994,
      "市场": 1995,
      "活动": 1996,
      "ters": 1997,
      "https": 1998,
      "▁left": 1999,
      "atic": 2000,
      "▁local": 2001,
      "▁family": 2002,
      "教育": 2003,
      "angle": 2004,
      "nim": 2005,
      "illion": 2006,
      "▁Ar": 2007,
      "name": 2008,
      "array": 2009,
      "ploy": 2010,
      "▁including": 2011,
      "те": 2012,
      "学生": 2013,
      "▁large": 2014,
      "--": 2015,
      "resent": 2016,
      "uff": 2017,
      "ains": 2018,
      "▁health": 2019,
      "ump": 2020,
      "▁cr": 2021,
      "load": 2022,
      "▁chang": 2023,
      "ва": 2024,
      "▁available": 2025,
      "yle": 2026,
      "▁dem": 2027,
      "ument": 2028,
      "▁thought": 2029,
      "▁mult": 2030,
      "gest": 2031,
      "▁lim": 2032,
      "ither": 2033,
      "In": 2034,
      "anc": 2035,
      "很多": 2036,
      "ook": 2037,
      "技术": 2038,
      "bar": 2039,
      "▁didn": 2040,
      "▁ve": 2041,
      "ready": 2042,
      "▁days": 2043,
      "\\\":": 2044,
      "自己的": 2045,
      "安全": 2046,
      "item": 2047,
      "▁invest": 2048,
      "includ": 2049,
      "▁within": 2050,
      "rist": 2051,
      "ulation": 2052,
      "人的": 2053,
      "nect": 2054,
      "AN": 2055,
      "▁times": 2056,
      "ised": 2057,
      "____": 2058,
      "▁govern": 2059,
      "ply": 2060,
      "▁{\\\\": 2061,
      "▁group": 2062,
      "▁Con": 2063,
      "▁leg": 2064,
      "▁hum": 2065,
      "▁four": 2066,
      "▁bit": 2067,
      "情况": 2068,
      "ording": 2069,
      "def": 2070,
      "();\\": 2071,
      "▁away": 2072,
      "serv": 2073,
      "lambda": 2074,
      "irc": 2075,
      "▁enough": 2076,
      "div": 2077,
      "itive": 2078,
      "ember": 2079,
      "mod": 2080,
      "▁et": 2081,
      "▁—": 2082,
      "tr": 2083,
      "▁based": 2084,
      "br": 2085,
      "▁`": 2086,
      "EN": 2087,
      "▁market": 2088,
      "Con": 2089,
      "▁cost": 2090,
      "OR": 2091,
      "还是": 2092,
      "▁having": 2093,
      "ivid": 2094,
      "▁о": 2095,
      "▁phot": 2096,
      "rop": 2097,
      "asure": 2098,
      "▁bas": 2099,
      "play": 2100,
      "ре": 2101,
      "▁To": 2102,
      "▁elect": 2103,
      "▁tem": 2104,
      "ending": 2105,
      "▁charact": 2106,
      "▁example": 2107,
      "mm": 2108,
      "▁bro": 2109,
      "▁return": 2110,
      "ories": 2111,
      "▁energy": 2112,
      "▁kind": 2113,
      "也是": 2114,
      "sn": 2115,
      "▁least": 2116,
      "▁possible": 2117,
      "▁aff": 2118,
      "ards": 2119,
      "▁tell": 2120,
      "要求": 2121,
      "width": 2122,
      "▁job": 2123,
      "▁cap": 2124,
      "▁Ex": 2125,
      "▁far": 2126,
      "▁water": 2127,
      "人民": 2128,
      "aut": 2129,
      "▁recent": 2130,
      "到了": 2131,
      "sigma": 2132,
      "ane": 2133,
      "▁US": 2134,
      "aper": 2135,
      "ats": 2136,
      "Mz": 2137,
      "▁cal": 2138,
      "^{\\\\": 2139,
      "▁vers": 2140,
      "▁Pl": 2141,
      "]{": 2142,
      "▁already": 2143,
      "))": 2144,
      "▁--": 2145,
      "var": 2146,
      "▁check": 2147,
      "▁win": 2148,
      "▁done": 2149,
      "▁though": 2150,
      "ser": 2151,
      "ole": 2152,
      "▁doesn": 2153,
      "▁understand": 2154,
      "▁organ": 2155,
      "ри": 2156,
      "▁experience": 2157,
      "▁low": 2158,
      "au": 2159,
      "▁making": 2160,
      "cd": 2161,
      "都是": 2162,
      "▁type": 2163,
      "▁loc": 2164,
      "▁company": 2165,
      "▁money": 2166,
      "▁until": 2167,
      "现在": 2168,
      "back": 2169,
      "▁says": 2170,
      "开始": 2171,
      "▁mus": 2172,
      "▁(\\\\": 2173,
      "▁All": 2174,
      "nIf": 2175,
      "▁space": 2176,
      "▁addition": 2177,
      "mathbf": 2178,
      "por": 2179,
      "idx": 2180,
      "▁dev": 2181,
      "▁prof": 2182,
      "▁lik": 2183,
      "beta": 2184,
      "uthor": 2185,
      "▁mag": 2186,
      "▁Ind": 2187,
      "学习": 2188,
      "tt": 2189,
      "We": 2190,
      "yn": 2191,
      "IT": 2192,
      "▁mom": 2193,
      "▁talk": 2194,
      "rel": 2195,
      "cur": 2196,
      "ift": 2197,
      "▁above": 2198,
      "nimport": 2199,
      "▁called": 2200,
      "error": 2201,
      "▁pot": 2202,
      "requ": 2203,
      "+\\\\": 2204,
      "pm": 2205,
      "▁along": 2206,
      "▁mass": 2207,
      "ived": 2208,
      "rand": 2209,
      "国家": 2210,
      "indow": 2211,
      "ird": 2212,
      "▁custom": 2213,
      "ours": 2214,
      "▁sw": 2215,
      "▁‘": 2216,
      "Test": 2217,
      "aps": 2218,
      "的是": 2219,
      "qq": 2220,
      "▁working": 2221,
      "知道": 2222,
      "}{\\\\": 2223,
      "ny": 2224,
      "ribut": 2225,
      "▁actually": 2226,
      "社会": 2227,
      "▁exc": 2228,
      "ails": 2229,
      "arent": 2230,
      "▁true": 2231,
      "mathbb": 2232,
      "——": 2233,
      "▁looking": 2234,
      "^{-": 2235,
      "\\\\\\\\\\": 2236,
      "▁night": 2237,
      "▁rese": 2238,
      "▁ever": 2239,
      "ait": 2240,
      "AL": 2241,
      "lection": 2242,
      "大家": 2243,
      "了一": 2244,
      "ault": 2245,
      "▁impro": 2246,
      "▁self": 2247,
      "iron": 2248,
      "▁doing": 2249,
      "▁vide": 2250,
      "urther": 2251,
      "▁prom": 2252,
      "使用": 2253,
      "gin": 2254,
      "aim": 2255,
      "▁course": 2256,
      "rodu": 2257,
      "erence": 2258,
      "▁area": 2259,
      "nJ": 2260,
      "add": 2261,
      "研究": 2262,
      "ement": 2263,
      "项目": 2264,
      "ortun": 2265,
      "▁side": 2266,
      "ination": 2267,
      "▁move": 2268,
      "box": 2269,
      "roll": 2270,
      "▁ca": 2271,
      "▁today": 2272,
      "▁prot": 2273,
      "▁provide": 2274,
      "ES": 2275,
      "这些": 2276,
      "gg": 2277,
      "ixin": 2278,
      "crib": 2279,
      "▁respect": 2280,
      "▁es": 2281,
      "no": 2282,
      "biz": 2283,
      "方面": 2284,
      "▁short": 2285,
      "▁getting": 2286,
      "aster": 2287,
      "ium": 2288,
      "▁\\\\\\\\\\": 2289,
      "ga": 2290,
      "▁event": 2291,
      "gether": 2292,
      "iving": 2293,
      "arget": 2294,
      "▁past": 2295,
      "▁means": 2296,
      "const": 2297,
      "irl": 2298,
      "建设": 2299,
      "ene": 2300,
      "It": 2301,
      "ffic": 2302,
      "AS": 2303,
      "▁sug": 2304,
      "ilar": 2305,
      "▁orig": 2306,
      "weixin": 2307,
      "face": 2308,
      "ina": 2309,
      "resp": 2310,
      "che": 2311,
      "的时候": 2312,
      "$\\": 2313,
      "ries": 2314,
      "most": 2315,
      "==&": 2316,
      "▁makes": 2317,
      "ncom": 2318,
      "▁occ": 2319,
      "▁service": 2320,
      "▁view": 2321,
      "▁ann": 2322,
      "ocus": 2323,
      "▁control": 2324,
      "▁gl": 2325,
      "▁particular": 2326,
      "▁Tr": 2327,
      "▁access": 2328,
      "▁aut": 2329,
      "fe": 2330,
      "▁comput": 2331,
      "alf": 2332,
      "▁discuss": 2333,
      "▁hist": 2334,
      "▁reason": 2335,
      "AM": 2336,
      "ст": 2337,
      "ID": 2338,
      "▁else": 2339,
      "▁site": 2340,
      "▁sever": 2341,
      "▁writ": 2342,
      "▁@": 2343,
      "ajor": 2344,
      "ients": 2345,
      "▁tot": 2346,
      "▁often": 2347,
      "olution": 2348,
      "世界": 2349,
      "rem": 2350,
      "▁stre": 2351,
      "verage": 2352,
      "но": 2353,
      "▁Be": 2354,
      "outh": 2355,
      "iversity": 2356,
      "side": 2357,
      "public": 2358,
      "co": 2359,
      "idd": 2360,
      "▁size": 2361,
      "OT": 2362,
      "同时": 2363,
      "▁When": 2364,
      "ising": 2365,
      "ume": 2366,
      "▁eng": 2367,
      "▁story": 2368,
      "经济": 2369,
      "▁obtain": 2370,
      "▁What": 2371,
      "gamma": 2372,
      "ка": 2373,
      "▁Col": 2374,
      "ength": 2375,
      "▁single": 2376,
      "重要": 2377,
      "ipp": 2378,
      "▁hig": 2379,
      "arl": 2380,
      "iver": 2381,
      "▁sum": 2382,
      "▁learn": 2383,
      "▁strong": 2384,
      "soci": 2385,
      "▁object": 2386,
      "ended": 2387,
      "▁dri": 2388,
      "rho": 2389,
      "▁ident": 2390,
      "▁together": 2391,
      "▁On": 2392,
      "ext": 2393,
      "rivate": 2394,
      "▁hold": 2395,
      "以及": 2396,
      "ule": 2397,
      "▁happen": 2398,
      "▁redu": 2399,
      "ples": 2400,
      "html": 2401,
      "被告": 2402,
      "中的": 2403,
      "▁several": 2404,
      "▁certain": 2405,
      "nand": 2406,
      "ared": 2407,
      "igure": 2408,
      "▁No": 2409,
      "好的": 2410,
      "▁account": 2411,
      "ances": 2412,
      "str": 2413,
      "▁consider": 2414,
      "aring": 2415,
      "▁success": 2416,
      "▁Le": 2417,
      "非常": 2418,
      "posed": 2419,
      "uture": 2420,
      "▁stop": 2421,
      "ba": 2422,
      "▁government": 2423,
      "align": 2424,
      "sw": 2425,
      "▁meet": 2426,
      "theta": 2427,
      "所述": 2428,
      "▁link": 2429,
      "▁room": 2430,
      "▁represent": 2431,
      "▁season": 2432,
      "▁key": 2433,
      "▁typ": 2434,
      "▁children": 2435,
      "▁due": 2436,
      "news": 2437,
      "▁paramet": 2438,
      "▁My": 2439,
      "ids": 2440,
      "ivity": 2441,
      "不能": 2442,
      "ructure": 2443,
      "new": 2444,
      "nU": 2445,
      "文化": 2446,
      "▁become": 2447,
      "▁pat": 2448,
      "▁Ad": 2449,
      "LE": 2450,
      "/\\": 2451,
      "essage": 2452,
      "▁fac": 2453,
      "ape": 2454,
      "▁special": 2455,
      "▁once": 2456,
      "▁seen": 2457,
      "▁However": 2458,
      "▁cam": 2459,
      "ctor": 2460,
      "主要": 2461,
      "arning": 2462,
      "conom": 2463,
      "▁pract": 2464,
      "▁food": 2465,
      "ored": 2466,
      "▁men": 2467,
      "▁gr": 2468,
      "▁ben": 2469,
      "ateg": 2470,
      "▁br": 2471,
      "nFor": 2472,
      "nAs": 2473,
      "sec": 2474,
      "pre": 2475,
      "▁general": 2476,
      "urs": 2477,
      "▁clos": 2478,
      "提供": 2479,
      "对于": 2480,
      "ilon": 2481,
      "▁Or": 2482,
      "▁online": 2483,
      "▁study": 2484,
      "▁rad": 2485,
      "Pro": 2486,
      "▁house": 2487,
      "orth": 2488,
      "▁offic": 2489,
      "date": 2490,
      "▁someone": 2491,
      "大的": 2492,
      "作为": 2493,
      "mathrm": 2494,
      "ged": 2495,
      "▁Ph": 2496,
      "部分": 2497,
      "aken": 2498,
      "joy": 2499,
      "▁ment": 2500,
      "▁others": 2501,
      "▁appear": 2502,
      "Ex": 2503,
      "▁init": 2504,
      "▁either": 2505,
      "rap": 2506,
      "▁anything": 2507,
      "▁Christ": 2508,
      "ox": 2509,
      "▁webs": 2510,
      "book": 2511,
      "人员": 2512,
      "lob": 2513,
      "▁came": 2514,
      "▁mind": 2515,
      "angu": 2516,
      "▁mat": 2517,
      "ique": 2518,
      "▁Sp": 2519,
      "ister": 2520,
      "▁Bl": 2521,
      "▁question": 2522,
      "ales": 2523,
      "ribution": 2524,
      "▁buy": 2525,
      "ides": 2526,
      "▁deal": 2527,
      "nal": 2528,
      "▁create": 2529,
      "信息": 2530,
      "eqn": 2531,
      "IC": 2532,
      "▁country": 2533,
      "▁body": 2534,
      "rad": 2535,
      "ormal": 2536,
      "▁dr": 2537,
      "▁pret": 2538,
      "nin": 2539,
      "rt": 2540,
      "arrow": 2541,
      "ien": 2542,
      "iod": 2543,
      "▁major": 2544,
      "▁content": 2545,
      "第二": 2546,
      "$-": 2547,
      "影响": 2548,
      "▁known": 2549,
      "raphics": 2550,
      "nm": 2551,
      "▁won": 2552,
      "uro": 2553,
      "action": 2554,
      "▁similar": 2555,
      "abl": 2556,
      "产品": 2557,
      "ли": 2558,
      "▁comb": 2559,
      "reg": 2560,
      "now": 2561,
      "▁focus": 2562,
      "viron": 2563,
      "cially": 2564,
      "▁God": 2565,
      "▁matter": 2566,
      "▁started": 2567,
      "▁creat": 2568,
      "▁observ": 2569,
      "ley": 2570,
      "▁went": 2571,
      "ividual": 2572,
      ")}": 2573,
      "▁ant": 2574,
      "数据": 2575,
      "▁measure": 2576,
      "▁At": 2577,
      "eb": 2578,
      "aterial": 2579,
      "ney": 2580,
      "oll": 2581,
      "pose": 2582,
      "▁yet": 2583,
      "ystem": 2584,
      "onse": 2585,
      "▁later": 2586,
      "▁shows": 2587,
      "▁la": 2588,
      "cul": 2589,
      "美国": 2590,
      "▁women": 2591,
      "▁record": 2592,
      "▁larg": 2593,
      "▁specific": 2594,
      "lose": 2595,
      "AC": 2596,
      "▁file": 2597,
      "一些": 2598,
      "▁needs": 2599,
      "ught": 2600,
      "▁comes": 2601,
      "fect": 2602,
      "head": 2603,
      "能力": 2604,
      "▁live": 2605,
      "成为": 2606,
      "▁points": 2607,
      "press": 2608,
      "imate": 2609,
      "nu": 2610,
      "non": 2611,
      "ators": 2612,
      "ources": 2613,
      "▁describ": 2614,
      "▁Res": 2615,
      "▁easy": 2616,
      "times": 2617,
      "不同": 2618,
      "▁fore": 2619,
      "ilde": 2620,
      "▁suggest": 2621,
      "▁told": 2622,
      "ux": 2623,
      "▁With": 2624,
      "▁believe": 2625,
      "hing": 2626,
      "time": 2627,
      "ison": 2628,
      "ury": 2629,
      "▁Comm": 2630,
      "ко": 2631,
      "ohn": 2632,
      "IS": 2633,
      "▁took": 2634,
      "itor": 2635,
      "▁May": 2636,
      "▁bad": 2637,
      "▁enc": 2638,
      "ele": 2639,
      "omega": 2640,
      "▁text": 2641,
      "▁pack": 2642,
      "▁cut": 2643,
      "系统": 2644,
      "icy": 2645,
      "delta": 2646,
      "umber": 2647,
      "**\\": 2648,
      "▁complet": 2649,
      "ler": 2650,
      "▁exist": 2651,
      "mb": 2652,
      "▁future": 2653,
      "中心": 2654,
      "ends": 2655,
      "▁across": 2656,
      "▁install": 2657,
      "ially": 2658,
      "▁polit": 2659,
      "▁arg": 2660,
      "▁д": 2661,
      "Ph": 2662,
      "▁rele": 2663,
      "ills": 2664,
      "方式": 2665,
      "anks": 2666,
      "一定": 2667,
      "change": 2668,
      "ched": 2669,
      "▁mil": 2670,
      "▁conc": 2671,
      "▁soft": 2672,
      "▁invol": 2673,
      "▁connect": 2674,
      "▁blog": 2675,
      "▁character": 2676,
      "wh": 2677,
      "opy": 2678,
      "▁fav": 2679,
      "▁mot": 2680,
      "▁employ": 2681,
      "ncomment": 2682,
      "▁determ": 2683,
      "▁idea": 2684,
      "▁include": 2685,
      "utes": 2686,
      "上的": 2687,
      "▁range": 2688,
      "▁American": 2689,
      "org": 2690,
      "▁pred": 2691,
      "▁community": 2692,
      "▁fund": 2693,
      "一种": 2694,
      "▁sat": 2695,
      "ED": 2696,
      "oder": 2697,
      "********": 2698,
      "alse": 2699,
      "▁compa": 2700,
      "选择": 2701,
      "▁trying": 2702,
      "学校": 2703,
      "表示": 2704,
      "ey": 2705,
      "▁individual": 2706,
      "duct": 2707,
      "ification": 2708,
      "▁shown": 2709,
      "▁everything": 2710,
      "其他": 2711,
      "▁}": 2712,
      "▁pain": 2713,
      "▁ret": 2714,
      "though": 2715,
      "▁crit": 2716,
      "▁whole": 2717,
      "▁press": 2718,
      "wards": 2719,
      "tau": 2720,
      "▁young": 2721,
      "istic": 2722,
      "▁below": 2723,
      "组织": 2724,
      "发现": 2725,
      "▁city": 2726,
      "▁students": 2727,
      "▁image": 2728,
      "▁million": 2729,
      "▁enjoy": 2730,
      "▁pretty": 2731,
      "ude": 2732,
      "▁defin": 2733,
      "▁probably": 2734,
      "▁phys": 2735,
      "ands": 2736,
      "epend": 2737,
      "jsonl": 2738,
      "uation": 2739,
      "nTh": 2740,
      "▁quick": 2741,
      "sq": 2742,
      "▁sound": 2743,
      "▁video": 2744,
      "政府": 2745,
      "▁games": 2746,
      "▁network": 2747,
      "▁Can": 2748,
      "根据": 2749,
      "^\\\\": 2750,
      "iment": 2751,
      "▁air": 2752,
      "▁require": 2753,
      "▁abs": 2754,
      "这种": 2755,
      "▁human": 2756,
      "rix": 2757,
      "▁values": 2758,
      "af": 2759,
      "▁whether": 2760,
      "▁research": 2761,
      "idence": 2762,
      "aption": 2763,
      "目前": 2764,
      "asing": 2765,
      "▁previous": 2766,
      "▁features": 2767,
      "大学": 2768,
      "}[": 2769,
      "▁relations": 2770,
      "nb": 2771,
      "▁=>": 2772,
      "老师": 2773,
      "那么": 2774,
      "ians": 2775,
      "▁dom": 2776,
      "Cl": 2777,
      "▁performance": 2778,
      "ttp": 2779,
      "mber": 2780,
      "▁ago": 2781,
      "\\\">\\": 2782,
      "Name": 2783,
      "▁early": 2784,
      "osp": 2785,
      "▁close": 2786,
      "▁music": 2787,
      "▁members": 2788,
      "▁These": 2789,
      "itch": 2790,
      "来的": 2791,
      "▁treat": 2792,
      "▁pick": 2793,
      "go": 2794,
      "cle": 2795,
      "▁lay": 2796,
      "opt": 2797,
      "key": 2798,
      "▁months": 2799,
      "partial": 2800,
      "vironment": 2801,
      "▁social": 2802,
      "ception": 2803,
      "相关": 2804,
      "ables": 2805,
      "▁final": 2806,
      "环境": 2807,
      "▁profess": 2808,
      "▁almost": 2809,
      "eqnarray": 2810,
      "Com": 2811,
      "▁simple": 2812,
      "oin": 2813,
      "▁econom": 2814,
      "ams": 2815,
      "▁vol": 2816,
      "rict": 2817,
      "▁terms": 2818,
      "une": 2819,
      "Ch": 2820,
      "▁position": 2821,
      "还有": 2822,
      "ones": 2823,
      "ground": 2824,
      "unch": 2825,
      "▁training": 2826,
      "▁sex": 2827,
      "▁ey": 2828,
      "▁#": 2829,
      "▁percent": 2830,
      "respond": 2831,
      "▁half": 2832,
      "▁seems": 2833,
      "HE": 2834,
      "ibility": 2835,
      "▁One": 2836,
      "▁paper": 2837,
      "type": 2838,
      "nYou": 2839,
      "▁rather": 2840,
      "▁services": 2841,
      "不会": 2842,
      "▁further": 2843,
      "▁dou": 2844,
      "▁issue": 2845,
      "ager": 2846,
      "orld": 2847,
      "arri": 2848,
      "aff": 2849,
      "或者": 2850,
      "▁App": 2851,
      "▁visit": 2852,
      "Delta": 2853,
      "isk": 2854,
      "rect": 2855,
      "▁>": 2856,
      "▁signific": 2857,
      "▁port": 2858,
      "▁claim": 2859,
      "▁amount": 2860,
      "我的": 2861,
      "▁Eng": 2862,
      "▁taking": 2863,
      "▁version": 2864,
      "▁quite": 2865,
      "▁website": 2866,
      "place": 2867,
      "▁Te": 2868,
      "off": 2869,
      "▁Cent": 2870,
      "raft": 2871,
      "▁works": 2872,
      "imal": 2873,
      "▁indust": 2874,
      "▁quality": 2875,
      "▁black": 2876,
      "empt": 2877,
      "pecially": 2878,
      "plement": 2879,
      "能够": 2880,
      "used": 2881,
      "▁mor": 2882,
      "ications": 2883,
      "▁break": 2884,
      "▁isn": 2885,
      "▁trad": 2886,
      "包括": 2887,
      "omet": 2888,
      "所有": 2889,
      "irt": 2890,
      "▁friends": 2891,
      "▁tre": 2892,
      "方法": 2893,
      "▁red": 2894,
      "▁begin": 2895,
      "▁series": 2896,
      "个人": 2897,
      "其中": 2898,
      "anguage": 2899,
      "▁address": 2900,
      "iple": 2901,
      "之后": 2902,
      "……": 2903,
      "出现": 2904,
      "gs": 2905,
      "▁period": 2906,
      "ches": 2907,
      "OU": 2908,
      "ball": 2909,
      "▁item": 2910,
      "ograph": 2911,
      "ки": 2912,
      "clus": 2913,
      "为了": 2914,
      "▁action": 2915,
      "▁common": 2916,
      "▁miss": 2917,
      "▁total": 2918,
      "my": 2919,
      "▁material": 2920,
      "OS": 2921,
      "▁girl": 2922,
      "')": 2923,
      "▁face": 2924,
      "▁benef": 2925,
      "cm": 2926,
      "ysis": 2927,
      "▁rate": 2928,
      "▁walk": 2929,
      "怎么": 2930,
      "ips": 2931,
      "ро": 2932,
      "▁Man": 2933,
      "ero": 2934,
      "ен": 2935,
      "sel": 2936,
      "ights": 2937,
      "开展": 2938,
      "▁express": 2939,
      "illed": 2940,
      "caption": 2941,
      "▁user": 2942,
      "▁page": 2943,
      "ension": 2944,
      "▁bring": 2945,
      "ued": 2946,
      "▁near": 2947,
      "▁personal": 2948,
      "imum": 2949,
      "一起": 2950,
      "ev": 2951,
      "发生": 2952,
      "▁super": 2953,
      "认为": 2954,
      "▁taken": 2955,
      "▁bound": 2956,
      "▁nothing": 2957,
      "设计": 2958,
      "leq": 2959,
      "gr": 2960,
      "▁entire": 2961,
      "textbf": 2962,
      "▁target": 2963,
      "▁moment": 2964,
      "ided": 2965,
      "原告": 2966,
      "iter": 2967,
      "▁wond": 2968,
      "▁higher": 2969,
      "▁news": 2970,
      "▁fix": 2971,
      "▁five": 2972,
      "▁е": 2973,
      "▁potential": 2974,
      "за": 2975,
      "Id": 2976,
      "▁perfect": 2977,
      "▁cannot": 2978,
      "sim": 2979,
      "▁sent": 2980,
      "▁models": 2981,
      "▁share": 2982,
      "▁everyone": 2983,
      "▁approach": 2984,
      "▁watch": 2985,
      "朋友": 2986,
      "▁hot": 2987,
      "▁stay": 2988,
      "cing": 2989,
      "ained": 2990,
      "城市": 2991,
      "hy": 2992,
      "▁hours": 2993,
      "▁Do": 2994,
      "ties": 2995,
      "▁author": 2996,
      "agement": 2997,
      "这一": 2998,
      "▁tax": 2999,
      "ilities": 3000,
      "maz": 3001,
      "▁Fr": 3002,
      "egraphics": 3003,
      "includegraphics": 3004,
      "()\\": 3005,
      "投资": 3006,
      "ully": 3007,
      "▁likely": 3008,
      "lu": 3009,
      "lim": 3010,
      "▁den": 3011,
      "▁pri": 3012,
      "ET": 3013,
      "ules": 3014,
      "▁land": 3015,
      "selves": 3016,
      "icro": 3017,
      "过程": 3018,
      "rew": 3019,
      "lobal": 3020,
      "▁offer": 3021,
      "ai": 3022,
      "ensity": 3023,
      "ilt": 3024,
      "ledge": 3025,
      "▁doc": 3026,
      "比较": 3027,
      "ently": 3028,
      "▁Go": 3029,
      "▁chall": 3030,
      "▁fail": 3031,
      "▁wanted": 3032,
      "▁however": 3033,
      "cription": 3034,
      "ges": 3035,
      "▁source": 3036,
      "▁issues": 3037,
      "▁fall": 3038,
      "▁search": 3039,
      "body": 3040,
      "np": 3041,
      "这是": 3042,
      "▁among": 3043,
      "▁states": 3044,
      "OD": 3045,
      "LL": 3046,
      "▁compet": 3047,
      "''": 3048,
      "▁neg": 3049,
      "icult": 3050,
      "▁==": 3051,
      "ND": 3052,
      "▁spect": 3053,
      "▁University": 3054,
      "*}\\": 3055,
      "▁exact": 3056,
      "nWhat": 3057,
      "生产": 3058,
      "onent": 3059,
      "ster": 3060,
      "space": 3061,
      "▁products": 3062,
      "▁Not": 3063,
      "chie": 3064,
      "▁answ": 3065,
      "itting": 3066,
      "▁significant": 3067,
      "专业": 3068,
      "▁attack": 3069,
      "▁select": 3070,
      "resh": 3071,
      "▁г": 3072,
      "▁deg": 3073,
      "▁John": 3074,
      "▁code": 3075,
      "▁heart": 3076,
      "ging": 3077,
      "▁block": 3078,
      "AP": 3079,
      "tab": 3080,
      "▁max": 3081,
      "String": 3082,
      "▁development": 3083,
      "ror": 3084,
      "▁nat": 3085,
      "xi": 3086,
      "eed": 3087,
      "▁correspond": 3088,
      "OM": 3089,
      "cript": 3090,
      "▁front": 3091,
      "他的": 3092,
      "▁deb": 3093,
      "▁United": 3094,
      "▁clear": 3095,
      "▁necess": 3096,
      "▁problems": 3097,
      "▁running": 3098,
      "▁section": 3099,
      "▁Then": 3100,
      "ival": 3101,
      "room": 3102,
      "▁educ": 3103,
      "▁war": 3104,
      "df": 3105,
      "▁tool": 3106,
      "▁simply": 3107,
      "yl": 3108,
      "▁pict": 3109,
      "Res": 3110,
      "实现": 3111,
      "iction": 3112,
      "▁loss": 3113,
      "ensive": 3114,
      "nSo": 3115,
      "▁u": 3116,
      "一步": 3117,
      "▁minutes": 3118,
      "责任": 3119,
      "▁pie": 3120,
      "▁track": 3121,
      "}(\\\\": 3122,
      "▁anyone": 3123,
      "unction": 3124,
      "big": 3125,
      "▁media": 3126,
      "itten": 3127,
      "========": 3128,
      "关系": 3129,
      "▁opportun": 3130,
      "ogle": 3131,
      "一直": 3132,
      "▁http": 3133,
      "quet": 3134,
      "▁parent": 3135,
      "▁etc": 3136,
      "uild": 3137,
      "elt": 3138,
      "|\\\\": 3139,
      "itted": 3140,
      "▁Sup": 3141,
      "fty": 3142,
      "▁beaut": 3143,
      "健康": 3144,
      "quad": 3145,
      "▁contact": 3146,
      "▁hope": 3147,
      "▁introdu": 3148,
      "▁plac": 3149,
      "tention": 3150,
      "▁words": 3151,
      "如何": 3152,
      "▁needed": 3153,
      "▁according": 3154,
      "utions": 3155,
      "umn": 3156,
      "其实": 3157,
      "hel": 3158,
      "span": 3159,
      "▁quant": 3160,
      "perature": 3161,
      "希望": 3162,
      "▁improve": 3163,
      "▁wait": 3164,
      "ava": 3165,
      "▁systems": 3166,
      "▁lower": 3167,
      "▁tw": 3168,
      "sqrt": 3169,
      "▁flo": 3170,
      "gor": 3171,
      "工程": 3172,
      "▁respons": 3173,
      "觉得": 3174,
      "▁history": 3175,
      "▁price": 3176,
      "▁dat": 3177,
      "aged": 3178,
      "tilde": 3179,
      "▁associ": 3180,
      "hers": 3181,
      "▁store": 3182,
      "▁instead": 3183,
      "mit": 3184,
      "irm": 3185,
      "喜欢": 3186,
      "Int": 3187,
      "内容": 3188,
      "nThere": 3189,
      "ober": 3190,
      "产业": 3191,
      "▁path": 3192,
      "reed": 3193,
      "起来": 3194,
      "▁solution": 3195,
      "一样": 3196,
      "而且": 3197,
      "\\\")": 3198,
      "▁compl": 3199,
      "enc": 3200,
      "▁step": 3201,
      "inc": 3202,
      "▁difficult": 3203,
      "word": 3204,
      "▁cell": 3205,
      "提高": 3206,
      "ogn": 3207,
      "应该": 3208,
      "order": 3209,
      "看到": 3210,
      "~~": 3211,
      "▁circ": 3212,
      "虽然": 3213,
      "▁coming": 3214,
      "因此": 3215,
      "ires": 3216,
      "bl": 3217,
      "nof": 3218,
      "urb": 3219,
      "amples": 3220,
      "▁required": 3221,
      "▁age": 3222,
      "▁compan": 3223,
      "存在": 3224,
      "▁various": 3225,
      "▁от": 3226,
      "aving": 3227,
      "了解": 3228,
      "ected": 3229,
      "infty": 3230,
      "▁hom": 3231,
      "nAnd": 3232,
      "mon": 3233,
      "subsection": 3234,
      "▁especially": 3235,
      "down": 3236,
      "AD": 3237,
      "see": 3238,
      "▁learning": 3239,
      "▁Sc": 3240,
      "▁ground": 3241,
      "年的": 3242,
      "▁original": 3243,
      "▁third": 3244,
      "era": 3245,
      "nwhere": 3246,
      "▁environment": 3247,
      "gorith": 3248,
      "iting": 3249,
      "nes": 3250,
      "最后": 3251,
      "ruction": 3252,
      "astic": 3253,
      "nV": 3254,
      "▁recomm": 3255,
      "ino": 3256,
      "ament": 3257,
      "lex": 3258,
      "▁op": 3259,
      "▁average": 3260,
      "ript": 3261,
      "行业": 3262,
      "acy": 3263,
      "▁changes": 3264,
      "▁achie": 3265,
      "▁added": 3266,
      "ports": 3267,
      "ops": 3268,
      "不要": 3269,
      "eral": 3270,
      "pact": 3271,
      "nBut": 3272,
      "▁Ste": 3273,
      "▁Euro": 3274,
      "▁questions": 3275,
      "▁After": 3276,
      "▁relationship": 3277,
      "mat": 3278,
      "▁Pr": 3279,
      "▁asked": 3280,
      "ING": 3281,
      "ured": 3282,
      "nTo": 3283,
      "▁takes": 3284,
      "ung": 3285,
      "ynam": 3286,
      "Type": 3287,
      "▁clean": 3288,
      "的事": 3289,
      "▁review": 3290,
      "nK": 3291,
      "bit": 3292,
      "}=": 3293,
      "▁error": 3294,
      "▁film": 3295,
      "elling": 3296,
      "▁indic": 3297,
      "▁host": 3298,
      "精神": 3299,
      "lege": 3300,
      "完成": 3301,
      "nHow": 3302,
      "inary": 3303,
      "cont": 3304,
      "table": 3305,
      "indows": 3306,
      "▁structure": 3307,
      "▁flow": 3308,
      "▁expected": 3309,
      "▁please": 3310,
      "▁cult": 3311,
      "eqref": 3312,
      "代表": 3313,
      "starc": 3314,
      "year": 3315,
      "parquet": 3316,
      "orem": 3317,
      "come": 3318,
      "▁sens": 3319,
      "####": 3320,
      "urch": 3321,
      "starcoder": 3322,
      "oring": 3323,
      "具有": 3324,
      "aid": 3325,
      "你的": 3326,
      "▁table": 3327,
      "▁behind": 3328,
      "using": 3329,
      "▁Fl": 3330,
      "只是": 3331,
      "▁accept": 3332,
      "▁aud": 3333,
      "▁complete": 3334,
      "▁Inst": 3335,
      "▁activ": 3336,
      "ites": 3337,
      "](": 3338,
      "▁State": 3339,
      "ega": 3340,
      "eks": 3341,
      "izing": 3342,
      "ises": 3343,
      "▁standard": 3344,
      "▁sense": 3345,
      "oud": 3346,
      "▁effort": 3347,
      "ION": 3348,
      "▁behav": 3349,
      "▁style": 3350,
      "▁request": 3351,
      "▁Co": 3352,
      "wise": 3353,
      "▁couple": 3354,
      "This": 3355,
      "medi": 3356,
      "▁Let": 3357,
      "▁Mar": 3358,
      "▁cross": 3359,
      "▁provided": 3360,
      "▁favor": 3361,
      "aining": 3362,
      "▁publ": 3363,
      "▁increase": 3364,
      "like": 3365,
      "▁subject": 3366,
      "where": 3367,
      "▁Car": 3368,
      "规定": 3369,
      "▁Fig": 3370,
      "▁Min": 3371,
      "▁по": 3372,
      "▁ver": 3373,
      "MA": 3374,
      "uf": 3375,
      "▁separ": 3376,
      "EC": 3377,
      "isf": 3378,
      "▁via": 3379,
      "▁fit": 3380,
      "▁fight": 3381,
      "////": 3382,
      "abor": 3383,
      "top": 3384,
      "▁coll": 3385,
      "sk": 3386,
      "list": 3387,
      "▁base": 3388,
      "▁six": 3389,
      "nn": 3390,
      "▁living": 3391,
      "支持": 3392,
      "▁Intern": 3393,
      "▁Cal": 3394,
      "List": 3395,
      "▁card": 3396,
      "▁Ob": 3397,
      "▁purch": 3398,
      "rack": 3399,
      "▁ess": 3400,
      "▁Count": 3401,
      "ze": 3402,
      "▁$(": 3403,
      "▁soon": 3404,
      "oke": 3405,
      "提升": 3406,
      "▁property": 3407,
      "ners": 3408,
      "▁longer": 3409,
      "▁cases": 3410,
      "▁players": 3411,
      "▁_": 3412,
      "▁building": 3413,
      "fl": 3414,
      "▁ill": 3415,
      "print": 3416,
      "['": 3417,
      "▁Me": 3418,
      "▁foot": 3419,
      "基本": 3420,
      "itional": 3421,
      "▁м": 3422,
      "nWhen": 3423,
      "▁wrong": 3424,
      "▁dam": 3425,
      "▁cred": 3426,
      "▁becom": 3427,
      "▁temperature": 3428,
      "ille": 3429,
      "ili": 3430,
      "▁forward": 3431,
      "не": 3432,
      "psi": 3433,
      "▁myself": 3434,
      "▁events": 3435,
      "lin": 3436,
      "eter": 3437,
      "不过": 3438,
      "odes": 3439,
      "▁frequ": 3440,
      "▁role": 3441,
      "▁bott": 3442,
      "作用": 3443,
      "▁ang": 3444,
      "nh": 3445,
      "roups": 3446,
      "▁web": 3447,
      "▁analysis": 3448,
      "▁email": 3449,
      "▁word": 3450,
      "▁ens": 3451,
      "']": 3452,
      "cdot": 3453,
      ")=": 3454,
      "arth": 3455,
      "之间": 3456,
      "基础": 3457,
      "▁distribution": 3458,
      "▁reading": 3459,
      "ле": 3460,
      "▁hy": 3461,
      "▁box": 3462,
      "fort": 3463,
      "▁outside": 3464,
      "▁normal": 3465,
      "▁mention": 3466,
      "▁color": 3467,
      "▁By": 3468,
      "▁write": 3469,
      "▁ste": 3470,
      "string": 3471,
      "一次": 3472,
      "知识": 3473,
      "dis": 3474,
      "▁Now": 3475,
      "curity": 3476,
      "▁dig": 3477,
      "($": 3478,
      "based": 3479,
      "rangle": 3480,
      "只有": 3481,
      "▁log": 3482,
      "uration": 3483,
      "▁complex": 3484,
      "▁More": 3485,
      "▁inside": 3486,
      "▁regular": 3487,
      "fer": 3488,
      "▁continue": 3489,
      "▁extra": 3490,
      "▁travel": 3491,
      "olds": 3492,
      "▁worth": 3493,
      "▁Just": 3494,
      "uge": 3495,
      "cret": 3496,
      "Val": 3497,
      "▁York": 3498,
      "▁ways": 3499,
      "rown": 3500,
      "hline": 3501,
      "▁usually": 3502,
      "▁industry": 3503,
      "ти": 3504,
      "field": 3505,
      "▁Rep": 3506,
      "▁Pres": 3507,
      "▁Europe": 3508,
      "▁pan": 3509,
      "▁hit": 3510,
      "IG": 3511,
      "特别": 3512,
      "国际": 3513,
      "两个": 3514,
      "inally": 3515,
      "umb": 3516,
      "不断": 3517,
      "▁constant": 3518,
      "▁Ge": 3519,
      "▁weight": 3520,
      "▁writing": 3521,
      "甚至": 3522,
      "▁companies": 3523,
      "解决": 3524,
      "▁gen": 3525,
      "aging": 3526,
      "▁created": 3527,
      "rag": 3528,
      "处理": 3529,
      "▁calcul": 3530,
      "sy": 3531,
      "▁Mc": 3532,
      "然后": 3533,
      "}}\\\\": 3534,
      "▁Our": 3535,
      "▁investig": 3536,
      "ender": 3537,
      "▁weeks": 3538,
      "iew": 3539,
      "科技": 3540,
      "fully": 3541,
      "▁id": 3542,
      "▁lat": 3543,
      "▁ut": 3544,
      "▁conditions": 3545,
      "▁%": 3546,
      "ony": 3547,
      "▁region": 3548,
      "▁recently": 3549,
      "▁star": 3550,
      "test": 3551,
      "▁City": 3552,
      "▁pref": 3553,
      "met": 3554,
      "▁limit": 3555,
      "控制": 3556,
      "▁States": 3557,
      "▁hop": 3558,
      "▁party": 3559,
      "▁aw": 3560,
      "ervice": 3561,
      "▁article": 3562,
      "合作": 3563,
      "一般": 3564,
      "▁Med": 3565,
      "ла": 3566,
      "idered": 3567,
      "ological": 3568,
      "今天": 3569,
      "▁fire": 3570,
      "▁interesting": 3571,
      "▁nice": 3572,
      "size": 3573,
      "由于": 3574,
      "疫情": 3575,
      "▁string": 3576,
      "▁ones": 3577,
      "▁itself": 3578,
      "):\\": 3579,
      "▁input": 3580,
      "▁death": 3581,
      "mega": 3582,
      "地方": 3583,
      "light": 3584,
      "▁comment": 3585,
      "▁ep": 3586,
      "▁emb": 3587,
      "有限": 3588,
      "▁white": 3589,
      "ancial": 3590,
      "▁der": 3591,
      "value": 3592,
      "orks": 3593,
      "▁regard": 3594,
      "nces": 3595,
      "mark": 3596,
      "行为": 3597,
      "aught": 3598,
      "ession": 3599,
      "标准": 3600,
      "▁users": 3601,
      "ци": 3602,
      "来说": 3603,
      "▁software": 3604,
      "▁yourself": 3605,
      "▁ball": 3606,
      "部门": 3607,
      "▁images": 3608,
      "ighb": 3609,
      "▁hon": 3610,
      "▁dest": 3611,
      "▁kids": 3612,
      "▁wasn": 3613,
      "ве": 3614,
      "▁fast": 3615,
      "ij": 3616,
      "▁leave": 3617,
      "单位": 3618,
      "▁Jan": 3619,
      "自然": 3620,
      "ming": 3621,
      "▁dire": 3622,
      "Data": 3623,
      "'\\": 3624,
      "▁viol": 3625,
      "▁note": 3626,
      "▁cover": 3627,
      "hood": 3628,
      "▁за": 3629,
      "sequ": 3630,
      "oo": 3631,
      "▁details": 3632,
      "▁correct": 3633,
      "▁saw": 3634,
      "▁official": 3635,
      "▁Gu": 3636,
      "US": 3637,
      "▁considered": 3638,
      "oper": 3639,
      "▁gets": 3640,
      "▁gives": 3641,
      "▁goes": 3642,
      "▁provides": 3643,
      "▁saying": 3644,
      "▁match": 3645,
      "more": 3646,
      "▁slow": 3647,
      "▁deep": 3648,
      "积极": 3649,
      "▁difference": 3650,
      "▁hor": 3651,
      "▁condition": 3652,
      "分析": 3653,
      "▁initial": 3654,
      "▁implement": 3655,
      "▁cook": 3656,
      "nis": 3657,
      "iful": 3658,
      "▁pair": 3659,
      "ceed": 3660,
      "▁lines": 3661,
      "rs": 3662,
      "▁Some": 3663,
      "▁estim": 3664,
      "平台": 3665,
      "直接": 3666,
      "umer": 3667,
      "▁playing": 3668,
      "▁consist": 3669,
      "▁His": 3670,
      "ependent": 3671,
      "just": 3672,
      "▁Qu": 3673,
      "▁positive": 3674,
      "ouch": 3675,
      "▁World": 3676,
      "▁phone": 3677,
      "edd": 3678,
      "}}\\": 3679,
      "epsilon": 3680,
      "更多": 3681,
      "NT": 3682,
      "xim": 3683,
      "iddle": 3684,
      "▁natural": 3685,
      "关于": 3686,
      "▁bi": 3687,
      "▁application": 3688,
      "▁looks": 3689,
      "北京": 3690,
      "▁related": 3691,
      "\\\");\\": 3692,
      "▁technology": 3693,
      "$)": 3694,
      "▁stuff": 3695,
      "ishing": 3696,
      "也不": 3697,
      "▁assum": 3698,
      "PS": 3699,
      "AA": 3700,
      "center": 3701,
      "do": 3702,
      "▁lost": 3703,
      "▁dim": 3704,
      "ached": 3705,
      "▁Cont": 3706,
      "alt": 3707,
      "历史": 3708,
      "unk": 3709,
      "这里": 3710,
      "▁heav": 3711,
      "▁defined": 3712,
      "▁mach": 3713,
      "▁prim": 3714,
      "创新": 3715,
      "▁bar": 3716,
      "Re": 3717,
      "获得": 3718,
      "icles": 3719,
      "参加": 3720,
      "▁sche": 3721,
      "▁additional": 3722,
      "amed": 3723,
      "▁multiple": 3724,
      "▁Im": 3725,
      "质量": 3726,
      "▁sort": 3727,
      "ди": 3728,
      "chan": 3729,
      "}}$": 3730,
      "nAl": 3731,
      "价格": 3732,
      "________": 3733,
      "▁road": 3734,
      "▁squ": 3735,
      "anced": 3736,
      "▁risk": 3737,
      "▁written": 3738,
      "▁annou": 3739,
      "Omega": 3740,
      "▁rand": 3741,
      "\\\\%": 3742,
      "交通": 3743,
      "annel": 3744,
      "▁drive": 3745,
      "▁happy": 3746,
      "To": 3747,
      "▁response": 3748,
      "▁attempt": 3749,
      "▁National": 3750,
      "▁methods": 3751,
      "形成": 3752,
      "sm": 3753,
      "nLet": 3754,
      "▁wonder": 3755,
      "▁sle": 3756,
      "政策": 3757,
      "▁length": 3758,
      "baike": 3759,
      "▁speak": 3760,
      "▁exec": 3761,
      "▁particip": 3762,
      "▁option": 3763,
      "cast": 3764,
      "▁choose": 3765,
      "▁parameters": 3766,
      "ences": 3767,
      "▁upon": 3768,
      "aches": 3769,
      "▁apply": 3770,
      "▁Che": 3771,
      "▁impact": 3772,
      "ague": 3773,
      "aves": 3774,
      "ees": 3775,
      "▁cy": 3776,
      "▁former": 3777,
      "▁depend": 3778,
      "继续": 3779,
      "udd": 3780,
      "▁prior": 3781,
      "▁Des": 3782,
      "ils": 3783,
      "ining": 3784,
      "pri": 3785,
      "cer": 3786,
      "obile": 3787,
      "▁speed": 3788,
      "Th": 3789,
      "rup": 3790,
      "▁sequ": 3791,
      "rc": 3792,
      "▁Pol": 3793,
      "ped": 3794,
      "dom": 3795,
      "▁Your": 3796,
      "▁choice": 3797,
      "▁themselves": 3798,
      "pped": 3799,
      "▁autom": 3800,
      "法律": 3801,
      "ana": 3802,
      "aries": 3803,
      "▁null": 3804,
      "earch": 3805,
      "ha": 3806,
      "▁bed": 3807,
      "▁remember": 3808,
      "▁screen": 3809,
      "增加": 3810,
      "IM": 3811,
      "chi": 3812,
      "注意": 3813,
      "▁late": 3814,
      "emph": 3815,
      "▁knowledge": 3816,
      "▁date": 3817,
      "inter": 3818,
      "▁cause": 3819,
      "▁random": 3820,
      "▁driv": 3821,
      "▁($": 3822,
      "结果": 3823,
      "▁goal": 3824,
      "max": 3825,
      "▁tru": 3826,
      "出了": 3827,
      "▁popular": 3828,
      "▁engine": 3829,
      "今年": 3830,
      "▁office": 3831,
      "▁obtained": 3832,
      "实际": 3833,
      "nOn": 3834,
      "rum": 3835,
      "▁satisf": 3836,
      "▁political": 3837,
      "▁areas": 3838,
      "▁mix": 3839,
      "▁experien": 3840,
      "▁completely": 3841,
      "▁message": 3842,
      "ping": 3843,
      "▁policy": 3844,
      "▁click": 3845,
      "bol": 3846,
      "▁figure": 3847,
      "haps": 3848,
      "▁includes": 3849,
      "▁)": 3850,
      "▁pers": 3851,
      "▁decision": 3852,
      "进入": 3853,
      "；\\": 3854,
      "▁cand": 3855,
      "▁cool": 3856,
      "▁collect": 3857,
      "with": 3858,
      "▁easily": 3859,
      "▁recogn": 3860,
      "▁security": 3861,
      "进一步": 3862,
      "minist": 3863,
      "▁currently": 3864,
      "▁effective": 3865,
      "atur": 3866,
      "verse": 3867,
      "▁America": 3868,
      "racy": 3869,
      "oice": 3870,
      "point": 3871,
      "▁stri": 3872,
      "▁tried": 3873,
      "▁band": 3874,
      "▁player": 3875,
      "▁false": 3876,
      "▁predict": 3877,
      "во": 3878,
      "▁serious": 3879,
      "ecause": 3880,
      "onents": 3881,
      "容易": 3882,
      "ithub": 3883,
      "▁Ed": 3884,
      "▁се": 3885,
      "▁answer": 3886,
      "^*": 3887,
      "▁unique": 3888,
      "▁Per": 3889,
      "ris": 3890,
      "▁Will": 3891,
      "资源": 3892,
      "II": 3893,
      "vec": 3894,
      "SS": 3895,
      "▁Part": 3896,
      "原因": 3897,
      "第三": 3898,
      "机构": 3899,
      "▁establ": 3900,
      "citep": 3901,
      "▁decided": 3902,
      "user": 3903,
      "atform": 3904,
      "▁device": 3905,
      "▁pull": 3906,
      "▁round": 3907,
      "▁phase": 3908,
      "Gamma": 3909,
      "▁Here": 3910,
      "▁computer": 3911,
      "▁options": 3912,
      "aching": 3913,
      "gorithm": 3914,
      "是一": 3915,
      "asons": 3916,
      "▁tour": 3917,
      "nection": 3918,
      "nto": 3919,
      "全国": 3920,
      "▁received": 3921,
      "▁South": 3922,
      "功能": 3923,
      "▁reported": 3924,
      "▁song": 3925,
      "保护": 3926,
      "▁analy": 3927,
      "▁graph": 3928,
      "▁surpr": 3929,
      "医院": 3930,
      "\\\\\\\\": 3931,
      "一下": 3932,
      "py": 3933,
      "ada": 3934,
      "成功": 3935,
      "aily": 3936,
      "▁sett": 3937,
      "科学": 3938,
      "▁Dep": 3939,
      "*\\": 3940,
      "▁Af": 3941,
      "▁woman": 3942,
      "▁effic": 3943,
      "任何": 3944,
      "path": 3945,
      "家庭": 3946,
      "nHe": 3947,
      "ying": 3948,
      "▁Bo": 3949,
      "▁somet": 3950,
      "li": 3951,
      "nSt": 3952,
      "▁groups": 3953,
      "sing": 3954,
      "▁North": 3955,
      "▁thinking": 3956,
      "▁density": 3957,
      "ening": 3958,
      "▁blo": 3959,
      "领导": 3960,
      "You": 3961,
      "▁attention": 3962,
      "▁load": 3963,
      "▁follows": 3964,
      "▁charg": 3965,
      "ector": 3966,
      "uk": 3967,
      "▁language": 3968,
      "paign": 3969,
      "▁avoid": 3970,
      "▁jour": 3971,
      "的大": 3972,
      "▁Don": 3973,
      "^{(": 3974,
      "ults": 3975,
      "努力": 3976,
      "itary": 3977,
      "▁brand": 3978,
      "不仅": 3979,
      "iet": 3980,
      "是否": 3981,
      "riday": 3982,
      "▁worked": 3983,
      "▁lives": 3984,
      "▁feed": 3985,
      "▁allows": 3986,
      "▁held": 3987,
      "▁President": 3988,
      "ername": 3989,
      "▁draw": 3990,
      "▁fair": 3991,
      "▁sus": 3992,
      "出来": 3993,
      "atus": 3994,
      "▁chance": 3995,
      "▁display": 3996,
      "▁books": 3997,
      "rightarrow": 3998,
      "Ar": 3999,
      "之前": 4000,
      "会议": 4001,
      "帮助": 4002,
      "pec": 4003,
      "state": 4004,
      "▁effects": 4005,
      "▁center": 4006,
      "▁situation": 4007,
      "itter": 4008,
      "OP": 4009,
      "▁void": 4010,
      "Sh": 4011,
      "…\\": 4012,
      "▁surface": 4013,
      "网络": 4014,
      "▁Har": 4015,
      "▁ability": 4016,
      "必须": 4017,
      "▁included": 4018,
      "▁copy": 4019,
      "▁functions": 4020,
      "▁ready": 4021,
      "▁neighb": 4022,
      "uary": 4023,
      "ulations": 4024,
      "%\\": 4025,
      "▁sn": 4026,
      "▁global": 4027,
      "})$": 4028,
      "▁member": 4029,
      "目标": 4030,
      "▁police": 4031,
      "▁production": 4032,
      "▁comments": 4033,
      "▁Aust": 4034,
      "aur": 4035,
      "itely": 4036,
      "▁output": 4037,
      "计划": 4038,
      "感觉": 4039,
      "▁morning": 4040,
      "gra": 4041,
      "hib": 4042,
      "IL": 4043,
      "重点": 4044,
      "des": 4045,
      "增长": 4046,
      "///": 4047,
      "▁hear": 4048,
      "▁maybe": 4049,
      "&\\\\": 4050,
      "roid": 4051,
      "illing": 4052,
      "attle": 4053,
      "▁dark": 4054,
      "▁While": 4055,
      "tif": 4056,
      "▁remov": 4057,
      "ube": 4058,
      "▁Pe": 4059,
      "▁designed": 4060,
      "真的": 4061,
      "(\\": 4062,
      "▁accom": 4063,
      "▁fine": 4064,
      "oura": 4065,
      "▁Sm": 4066,
      "Mod": 4067,
      "▁THE": 4068,
      "▁exactly": 4069,
      "▁print": 4070,
      "▁staff": 4071,
      "Tr": 4072,
      "band": 4073,
      "▁directly": 4074,
      "mission": 4075,
      "▁sem": 4076,
      "OL": 4077,
      "nder": 4078,
      "▁Ju": 4079,
      "期间": 4080,
      "Col": 4081,
      "▁document": 4082,
      "有效": 4083,
      "board": 4084,
      "ribute": 4085,
      "netic": 4086,
      "▁Dis": 4087,
      "BC": 4088,
      "▁guy": 4089,
      "ief": 4090,
      "▁mother": 4091,
      "法院": 4092,
      "ags": 4093,
      "ashing": 4094,
      "▁private": 4095,
      "IP": 4096,
      "▁download": 4097,
      "▁growth": 4098,
      "oon": 4099,
      "lish": 4100,
      "▁Cor": 4101,
      "reak": 4102,
      "▁dynam": 4103,
      "▁spa": 4104,
      "stac": 4105,
      "▁eval": 4106,
      "▁felt": 4107,
      "zz": 4108,
      "▁theory": 4109,
      "这样的": 4110,
      "Qu": 4111,
      "地区": 4112,
      "▁release": 4113,
      "}_{\\\\": 4114,
      "position": 4115,
      "负责": 4116,
      "▁numbers": 4117,
      "治疗": 4118,
      "bt": 4119,
      "ried": 4120,
      "合同": 4121,
      "▁detail": 4122,
      "▁starting": 4123,
      "▁swe": 4124,
      "▁quickly": 4125,
      "▁Ag": 4126,
      "▁parts": 4127,
      "▁amaz": 4128,
      "pril": 4129,
      "▁yes": 4130,
      "▁larger": 4131,
      "nex": 4132,
      "▁arch": 4133,
      "nl": 4134,
      "▁map": 4135,
      "▁${\\\\": 4136,
      "ese": 4137,
      "▁beautiful": 4138,
      "code": 4139,
      "▁physical": 4140,
      "▁immedi": 4141,
      "导致": 4142,
      "▁experiment": 4143,
      "UR": 4144,
      "▁imm": 4145,
      "这么": 4146,
      "▁Mark": 4147,
      "If": 4148,
      "vant": 4149,
      "▁necessary": 4150,
      "▁Ab": 4151,
      "▁impl": 4152,
      "领域": 4153,
      "▁levels": 4154,
      "▁offers": 4155,
      "erc": 4156,
      "sl": 4157,
      "▁Oct": 4158,
      "同学": 4159,
      "▁court": 4160,
      "万元": 4161,
      "汽车": 4162,
      "▁err": 4163,
      "nfor": 4164,
      "▁board": 4165,
      "▁diag": 4166,
      "arily": 4167,
      "▁saf": 4168,
      "水平": 4169,
      "inf": 4170,
      "rote": 4171,
      "arter": 4172,
      "▁played": 4173,
      "but": 4174,
      "▁national": 4175,
      "ores": 4176,
      "群众": 4177,
      "▁sil": 4178,
      "▁vot": 4179,
      "产生": 4180,
      "▁bal": 4181,
      "▁stra": 4182,
      "bm": 4183,
      "▁gave": 4184,
      "▁heard": 4185,
      "▁House": 4186,
      "材料": 4187,
      "▁built": 4188,
      "textit": 4189,
      "SE": 4190,
      "▁oppos": 4191,
      "▁described": 4192,
      "▁upd": 4193,
      "anch": 4194,
      "需求": 4195,
      "ederal": 4196,
      "oad": 4197,
      "▁contract": 4198,
      "以上": 4199,
      "olid": 4200,
      "ски": 4201,
      "身体": 4202,
      "▁shop": 4203,
      "▁financial": 4204,
      "▁practice": 4205,
      "消费": 4206,
      "各种": 4207,
      "▁veh": 4208,
      "ibly": 4209,
      "▁types": 4210,
      "利用": 4211,
      "▁bir": 4212,
      "▁rat": 4213,
      "无法": 4214,
      "宣传": 4215,
      "▁thus": 4216,
      "▁hands": 4217,
      "▁repl": 4218,
      "views": 4219,
      "▁label": 4220,
      "ret": 4221,
      "社区": 4222,
      "▁proposed": 4223,
      "▁intern": 4224,
      "有一": 4225,
      "▁jud": 4226,
      "▁guys": 4227,
      "▁County": 4228,
      "▁files": 4229,
      "▁March": 4230,
      "ellow": 4231,
      "icated": 4232,
      "uses": 4233,
      "%%": 4234,
      "▁multi": 4235,
      "ви": 4236,
      "▁receive": 4237,
      "ло": 4238,
      "学院": 4239,
      "pite": 4240,
      "izes": 4241,
      "▁compared": 4242,
      "github": 4243,
      "inst": 4244,
      "按照": 4245,
      "▁System": 4246,
      "▁gas": 4247,
      "▁oil": 4248,
      "aul": 4249,
      "新的": 4250,
      "▁opportunity": 4251,
      "▁sometimes": 4252,
      "anger": 4253,
      "▁involved": 4254,
      "的话": 4255,
      "▁ge": 4256,
      "▁continu": 4257,
      "▁Mr": 4258,
      "eal": 4259,
      "For": 4260,
      "现场": 4261,
      "ously": 4262,
      "▁vict": 4263,
      "urance": 4264,
      "iven": 4265,
      "▁Aug": 4266,
      "aby": 4267,
      "▁demon": 4268,
      "CT": 4269,
      "▁config": 4270,
      "Cont": 4271,
      "▁dru": 4272,
      "▁comfort": 4273,
      "▁wall": 4274,
      "▁Act": 4275,
      "mult": 4276,
      "▁customers": 4277,
      "param": 4278,
      "得到": 4279,
      "atives": 4280,
      "oes": 4281,
      "▁recommend": 4282,
      "▁ple": 4283,
      "▁huge": 4284,
      "▁lack": 4285,
      "atively": 4286,
      "UT": 4287,
      "价值": 4288,
      "ii": 4289,
      "))\\": 4290,
      "ър": 4291,
      "pack": 4292,
      "▁professional": 4293,
      "▁parents": 4294,
      ")^": 4295,
      "▁Am": 4296,
      "▁spin": 4297,
      "东西": 4298,
      "有的": 4299,
      "▁associated": 4300,
      "▁patter": 4301,
      "▁href": 4302,
      "▁movie": 4303,
      "}^{\\\\": 4304,
      "关注": 4305,
      "检查": 4306,
      "uments": 4307,
      "centering": 4308,
      "就会": 4309,
      "▁TV": 4310,
      "itude": 4311,
      "设备": 4312,
      "▁president": 4313,
      "▁location": 4314,
      "atory": 4315,
      "全球": 4316,
      "▁leading": 4317,
      "▁uses": 4318,
      "实施": 4319,
      "xchange": 4320,
      "执行": 4321,
      "▁streng": 4322,
      "▁mess": 4323,
      "unday": 4324,
      "▁rout": 4325,
      "当时": 4326,
      "cale": 4327,
      "oe": 4328,
      "color": 4329,
      "▁management": 4330,
      "▁dead": 4331,
      "▁giving": 4332,
      "uel": 4333,
      "教学": 4334,
      "++": 4335,
      "▁rights": 4336,
      "CC": 4337,
      "比如": 4338,
      "nced": 4339,
      "未来": 4340,
      "▁inn": 4341,
      "造成": 4342,
      "$$\\": 4343,
      "▁finally": 4344,
      "▁Dav": 4345,
      "NA": 4346,
      "故事": 4347,
      "reet": 4348,
      "▁scale": 4349,
      "▁opin": 4350,
      "ма": 4351,
      "rant": 4352,
      "lay": 4353,
      "▁mechan": 4354,
      "kexchange": 4355,
      "▁maintain": 4356,
      "▁park": 4357,
      "stackexchange": 4358,
      "да": 4359,
      "rast": 4360,
      "su": 4361,
      "加强": 4362,
      "▁items": 4363,
      "ocr": 4364,
      "mary": 4365,
      "▁assist": 4366,
      "arlier": 4367,
      "mail": 4368,
      "▁div": 4369,
      "▁latest": 4370,
      "业务": 4371,
      "表现": 4372,
      "有限公司": 4373,
      "▁leaders": 4374,
      "▁campaign": 4375,
      "▁education": 4376,
      "▁distance": 4377,
      "eful": 4378,
      "有些": 4379,
      "vis": 4380,
      "ccording": 4381,
      "tered": 4382,
      "应用": 4383,
      "onday": 4384,
      "▁background": 4385,
      "oul": 4386,
      "结构": 4387,
      "▁School": 4388,
      "Al": 4389,
      "treturn": 4390,
      "的小": 4391,
      "ucle": 4392,
      "▁approxim": 4393,
      "nown": 4394,
      "rror": 4395,
      "▁imag": 4396,
      "▁wrote": 4397,
      "▁Park": 4398,
      "rought": 4399,
      "▁knew": 4400,
      "运动": 4401,
      "Red": 4402,
      "▁became": 4403,
      "▁*/\\": 4404,
      "▁prevent": 4405,
      "▁Google": 4406,
      "▁himself": 4407,
      "建议": 4408,
      "enn": 4409,
      "▁throughout": 4410,
      "▁Mon": 4411,
      "▁tas": 4412,
      "▁began": 4413,
      "▁protect": 4414,
      "▁suff": 4415,
      "ius": 4416,
      "inate": 4417,
      "▁West": 4418,
      "开发": 4419,
      "完全": 4420,
      "▁force": 4421,
      ">>": 4422,
      "我们的": 4423,
      "艺术": 4424,
      "index": 4425,
      "▁factor": 4426,
      "共同": 4427,
      "▁towards": 4428,
      "▁Sept": 4429,
      "▁respectively": 4430,
      "He": 4431,
      "▁context": 4432,
      "手机": 4433,
      "ymbol": 4434,
      "apan": 4435,
      "除了": 4436,
      "iring": 4437,
      "为什么": 4438,
      "持续": 4439,
      "教师": 4440,
      "▁save": 4441,
      "AB": 4442,
      "▁Russ": 4443,
      "ham": 4444,
      "▁dro": 4445,
      "nAn": 4446,
      "更加": 4447,
      "▁ideas": 4448,
      "▁talking": 4449,
      "▁subst": 4450,
      "MD": 4451,
      "人们": 4452,
      "▁whose": 4453,
      "▁influ": 4454,
      "ache": 4455,
      "untu": 4456,
      "MT": 4457,
      "ufact": 4458,
      "银行": 4459,
      "▁challeng": 4460,
      "▁mid": 4461,
      "▁turned": 4462,
      "Ob": 4463,
      "style": 4464,
      "▁wants": 4465,
      "yond": 4466,
      "时代": 4467,
      "▁matrix": 4468,
      "▁broad": 4469,
      "▁numer": 4470,
      "ken": 4471,
      "aturday": 4472,
      "▁agree": 4473,
      "▁eyes": 4474,
      "Set": 4475,
      "▁title": 4476,
      "▁parameter": 4477,
      "username": 4478,
      "▁decl": 4479,
      "▁evidence": 4480,
      "page": 4481,
      "oms": 4482,
      "▁compar": 4483,
      "gram": 4484,
      "ted": 4485,
      "▁direction": 4486,
      "▁convers": 4487,
      "▁Ser": 4488,
      "▁properties": 4489,
      "gen": 4490,
      "▁Val": 4491,
      "▁sell": 4492,
      "▁countries": 4493,
      "▁nature": 4494,
      "全面": 4495,
      "▁town": 4496,
      "▁Center": 4497,
      "wide": 4498,
      "langle": 4499,
      "▁Also": 4500,
      "EL": 4501,
      "并且": 4502,
      "▁From": 4503,
      "case": 4504,
      "▁sold": 4505,
      "▁ten": 4506,
      "▁medical": 4507,
      "▁charge": 4508,
      "▁marri": 4509,
      "上海": 4510,
      "psilon": 4511,
      "ENT": 4512,
      "▁valid": 4513,
      "结合": 4514,
      "▁Dr": 4515,
      "icense": 4516,
      "传统": 4517,
      "保持": 4518,
      "▁cat": 4519,
      "appro": 4520,
      "▁June": 4521,
      "▁occur": 4522,
      "▁cele": 4523,
      "atever": 4524,
      "▁Dem": 4525,
      "▁send": 4526,
      "че": 4527,
      "geq": 4528,
      "准备": 4529,
      "▁increasing": 4530,
      "nMy": 4531,
      "▁mis": 4532,
      "▁inj": 4533,
      "▁reve": 4534,
      "sup": 4535,
      "才能": 4536,
      "▁tal": 4537,
      "▁absol": 4538,
      "▁treatment": 4539,
      "▁Of": 4540,
      "lation": 4541,
      "iding": 4542,
      "aker": 4543,
      "nst": 4544,
      "▁Sim": 4545,
      "enge": 4546,
      "条件": 4547,
      "ades": 4548,
      "▁conv": 4549,
      "hile": 4550,
      "/**\\": 4551,
      "irit": 4552,
      "▁fully": 4553,
      "▁War": 4554,
      "Im": 4555,
      "提出": 4556,
      "ky": 4557,
      "Get": 4558,
      "▁Bar": 4559,
      "参与": 4560,
      "▁drink": 4561,
      "▁С": 4562,
      "▁looked": 4563,
      "▁population": 4564,
      "▁meeting": 4565,
      "做好": 4566,
      "是在": 4567,
      "eneral": 4568,
      "▁piece": 4569,
      "ooth": 4570,
      "ework": 4571,
      "▁favorite": 4572,
      "comp": 4573,
      "nWith": 4574,
      "决定": 4575,
      "用户": 4576,
      "▁task": 4577,
      "▁soci": 4578,
      "▁double": 4579,
      "lem": 4580,
      "rig": 4581,
      "▁summer": 4582,
      "▁April": 4583,
      "rary": 4584,
      "igned": 4585,
      "▁guess": 4586,
      "ech": 4587,
      "▁hair": 4588,
      "▁Reg": 4589,
      "日本": 4590,
      "):": 4591,
      "ridge": 4592,
      "▁unit": 4593,
      "iced": 4594,
      "actions": 4595,
      "▁limited": 4596,
      "▁interested": 4597,
      "▁element": 4598,
      "IR": 4599,
      "▁corresponding": 4600,
      "▁stru": 4601,
      "随着": 4602,
      "介绍": 4603,
      "};\\": 4604,
      "比赛": 4605,
      "▁Feb": 4606,
      "▁straight": 4607,
      "模式": 4608,
      "nRe": 4609,
      "▁career": 4610,
      "▁Since": 4611,
      "▁obvious": 4612,
      "istics": 4613,
      "生命": 4614,
      "▁progress": 4615,
      "raz": 4616,
      "▁Brit": 4617,
      "推进": 4618,
      "▁stock": 4619,
      "void": 4620,
      "性的": 4621,
      "▁Day": 4622,
      "▁ensure": 4623,
      "▁released": 4624,
      "▁touch": 4625,
      "post": 4626,
      "urt": 4627,
      "▁candid": 4628,
      "▁legal": 4629,
      "▁amazing": 4630,
      "icit": 4631,
      "▁scen": 4632,
      "hern": 4633,
      "▁allowed": 4634,
      "达到": 4635,
      "▁liter": 4636,
      "▁update": 4637,
      "AME": 4638,
      "vey": 4639,
      "每天": 4640,
      "▁July": 4641,
      "fficient": 4642,
      "omb": 4643,
      "▁pressure": 4644,
      "简单": 4645,
      "你们": 4646,
      "▁Add": 4647,
      "itution": 4648,
      "国内": 4649,
      "坚持": 4650,
      "ran": 4651,
      "▁picture": 4652,
      "建立": 4653,
      "icon": 4654,
      "发布": 4655,
      "▁Sw": 4656,
      "▁student": 4657,
      "▁shall": 4658,
      "保险": 4659,
      "iber": 4660,
      "▁sales": 4661,
      "▁``": 4662,
      "osing": 4663,
      "mbox": 4664,
      "cks": 4665,
      "SP": 4666,
      "▁Germ": 4667,
      "▁observed": 4668,
      "▁commit": 4669,
      "varphi": 4670,
      "▁elements": 4671,
      "▁Get": 4672,
      "▁therefore": 4673,
      "rows": 4674,
      "proof": 4675,
      "▁behavior": 4676,
      "▁fixed": 4677,
      "\\\")\\": 4678,
      "artment": 4679,
      "▁relig": 4680,
      "▁door": 4681,
      "▁emer": 4682,
      "CH": 4683,
      "tabular": 4684,
      "fra": 4685,
      "▁highly": 4686,
      "ovember": 4687,
      "mas": 4688,
      "orage": 4689,
      "旅游": 4690,
      "申请": 4691,
      "hold": 4692,
      "具体": 4693,
      "▁sample": 4694,
      "父母": 4695,
      "refore": 4696,
      "vare": 4697,
      "▁trust": 4698,
      "acc": 4699,
      "▁equation": 4700,
      "cember": 4701,
      "▁basis": 4702,
      "__\":": 4703,
      "▁\"__": 4704,
      "▁wide": 4705,
      "▁Bro": 4706,
      "▁mer": 4707,
      "▁altern": 4708,
      "▁shot": 4709,
      "OW": 4710,
      "▁El": 4711,
      "▁conduct": 4712,
      "之一": 4713,
      "iam": 4714,
      "也有": 4715,
      "udget": 4716,
      "▁contribut": 4717,
      "▁moving": 4718,
      "▁solutions": 4719,
      "omen": 4720,
      "oles": 4721,
      "显示": 4722,
      "erve": 4723,
      "oly": 4724,
      "综合": 4725,
      "▁instance": 4726,
      "▁degree": 4727,
      "▁zero": 4728,
      "pling": 4729,
      "交易": 4730,
      "▁concept": 4731,
      "▁fram": 4732,
      "▁optim": 4733,
      "▁pen": 4734,
      "▁nearly": 4735,
      "方案": 4736,
      "▁join": 4737,
      "▁roll": 4738,
      "▁insp": 4739,
      "智能": 4740,
      "▁useful": 4741,
      "▁although": 4742,
      "▁platform": 4743,
      "▁bank": 4744,
      "患者": 4745,
      "enty": 4746,
      "EM": 4747,
      "是一个": 4748,
      "效果": 4749,
      "▁English": 4750,
      "▁setting": 4751,
      "▁sites": 4752,
      "▁contain": 4753,
      "▁Republic": 4754,
      "▁categ": 4755,
      "空间": 4756,
      "▁happened": 4757,
      "soft": 4758,
      "▁Eq": 4759,
      "nonumber": 4760,
      "▁Tw": 4761,
      "▁credit": 4762,
      "▁**": 4763,
      "金融": 4764,
      "aling": 4765,
      "nOne": 4766,
      "pan": 4767,
      "ustr": 4768,
      "га": 4769,
      "▁б": 4770,
      "eff": 4771,
      "▁changed": 4772,
      "▁threat": 4773,
      "cos": 4774,
      "▁prepa": 4775,
      "▁rules": 4776,
      "ivil": 4777,
      "acebook": 4778,
      "▁static": 4779,
      "private": 4780,
      "▁wouldn": 4781,
      "▁First": 4782,
      "▁capt": 4783,
      "foot": 4784,
      "\\\"\\\"": 4785,
      "As": 4786,
      "cons": 4787,
      "unc": 4788,
      "ternal": 4789,
      "风险": 4790,
      "works": 4791,
      "▁electron": 4792,
      "aly": 4793,
      "▁fem": 4794,
      "ula": 4795,
      "接受": 4796,
      "真正": 4797,
      "isions": 4798,
      "▁Sen": 4799,
      "PR": 4800,
      "▁Read": 4801,
      "ests": 4802,
      "作品": 4803,
      "计算": 4804,
      "ategy": 4805,
      "▁fa": 4806,
      "/\\\\": 4807,
      "▁January": 4808,
      "▁}\\": 4809,
      "▁Mus": 4810,
      "▁earlier": 4811,
      "php": 4812,
      "▁spent": 4813,
      "reci": 4814,
      "▁teac": 4815,
      "有关": 4816,
      "rite": 4817,
      "▁son": 4818,
      "varepsilon": 4819,
      "Value": 4820,
      "Pa": 4821,
      "▁rev": 4822,
      "▁tele": 4823,
      "▁blood": 4824,
      "交流": 4825,
      "▁stage": 4826,
      "品牌": 4827,
      "▁mode": 4828,
      "urg": 4829,
      "rael": 4830,
      "▁alone": 4831,
      "▁flu": 4832,
      "model": 4833,
      "encies": 4834,
      "nwith": 4835,
      "▁feeling": 4836,
      "king": 4837,
      ");": 4838,
      "▁reach": 4839,
      "uesday": 4840,
      "▁fan": 4841,
      "▁High": 4842,
      "▁stars": 4843,
      "nBy": 4844,
      "▁couldn": 4845,
      "▁modern": 4846,
      "blog": 4847,
      "appa": 4848,
      "how": 4849,
      "map": 4850,
      "▁becomes": 4851,
      "▁q": 4852,
      "IV": 4853,
      "][": 4854,
      "lying": 4855,
      "的问题": 4856,
      "▁refer": 4857,
      "▁rac": 4858,
      "▁consum": 4859,
      "alax": 4860,
      "ography": 4861,
      "link": 4862,
      "状态": 4863,
      "▁father": 4864,
      "▁Par": 4865,
      "▁middle": 4866,
      "▁wish": 4867,
      "ednes": 4868,
      "▁led": 4869,
      "▁Mich": 4870,
      "妈妈": 4871,
      "不到": 4872,
      "建筑": 4873,
      "▁Friday": 4874,
      "行动": 4875,
      "ncil": 4876,
      "raction": 4877,
      "▁aren": 4878,
      "▁poly": 4879,
      "▁encoura": 4880,
      "▁пре": 4881,
      "分别": 4882,
      "▁advant": 4883,
      "▁distribut": 4884,
      "script": 4885,
      "▁index": 4886,
      "▁command": 4887,
      "过程中": 4888,
      "▁slight": 4889,
      "oph": 4890,
      "▁memory": 4891,
      "')\\": 4892,
      "当然": 4893,
      "▁stories": 4894,
      "▁enter": 4895,
      "));\\": 4896,
      "itation": 4897,
      "那些": 4898,
      "▁mount": 4899,
      "ened": 4900,
      "亿元": 4901,
      "▁carry": 4902,
      "fr": 4903,
      "▁rot": 4904,
      "▁plans": 4905,
      "▁Red": 4906,
      "下来": 4907,
      "▁smaller": 4908,
      "正在": 4909,
      "****************": 4910,
      "js": 4911,
      "inated": 4912,
      "▁datas": 4913,
      "rim": 4914,
      "Big": 4915,
      "▁lif": 4916,
      "以后": 4917,
      "quest": 4918,
      "▁published": 4919,
      "▁gun": 4920,
      "▁concern": 4921,
      "经过": 4922,
      "意识": 4923,
      "bra": 4924,
      "oto": 4925,
      "▁shoot": 4926,
      "如此": 4927,
      "▁brought": 4928,
      "ursday": 4929,
      "▁costs": 4930,
      "资金": 4931,
      "By": 4932,
      "▁Even": 4933,
      "={": 4934,
      "▁certainly": 4935,
      "ship": 4936,
      "小时": 4937,
      "▁rob": 4938,
      "保障": 4939,
      "▁Net": 4940,
      "nAt": 4941,
      "▁definitely": 4942,
      "ednesday": 4943,
      "▁bottom": 4944,
      "许多": 4945,
      "操作": 4946,
      "▁eat": 4947,
      "FF": 4948,
      "一点": 4949,
      "▁developed": 4950,
      "▁applications": 4951,
      "▁China": 4952,
      "cles": 4953,
      "▁beyond": 4954,
      "▁places": 4955,
      "▁extrem": 4956,
      "▁sun": 4957,
      "include": 4958,
      "方向": 4959,
      "▁ко": 4960,
      "▁located": 4961,
      "iny": 4962,
      "▁Off": 4963,
      "受到": 4964,
      "▁prec": 4965,
      "▁sleep": 4966,
      "▁Every": 4967,
      "▁Japan": 4968,
      "▁haven": 4969,
      "mitted": 4970,
      "报告": 4971,
      "▁dise": 4972,
      "▁skin": 4973,
      "▁default": 4974,
      "变化": 4975,
      "eline": 4976,
      "▁collection": 4977,
      "▁international": 4978,
      "证明": 4979,
      "▁Cour": 4980,
      "▁sal": 4981,
      "nAfter": 4982,
      "用于": 4983,
      "efore": 4984,
      "▁critical": 4985,
      "▁Obama": 4986,
      "▁statement": 4987,
      "▁integr": 4988,
      "▁achieve": 4989,
      "hand": 4990,
      "▁agre": 4991,
      "nNow": 4992,
      "▁hour": 4993,
      "▁projects": 4994,
      "AG": 4995,
      "机会": 4996,
      "▁programs": 4997,
      "▁presented": 4998,
      "▁clust": 4999,
      "▁safe": 5000,
      "▁Please": 5001,
      "▁ult": 5002,
      "▁spend": 5003,
      "▁proced": 5004,
      "采用": 5005,
      "▁machine": 5006,
      "▁contains": 5007,
      "OC": 5008,
      "▁Stud": 5009,
      "oted": 5010,
      "count": 5011,
      "▁dream": 5012,
      "itect": 5013,
      "▁actual": 5014,
      "▁anim": 5015,
      "MzI": 5016,
      "▁manufact": 5017,
      "▁wife": 5018,
      "▁ter": 5019,
      "▁green": 5020,
      "▁cry": 5021,
      "▁Afric": 5022,
      "input": 5023,
      "adem": 5024,
      "主任": 5025,
      "thon": 5026,
      "▁independent": 5027,
      "itable": 5028,
      "▁demonstr": 5029,
      "▁Ham": 5030,
      "▁basic": 5031,
      "▁ign": 5032,
      "▁resources": 5033,
      "▁characters": 5034,
      "过去": 5035,
      "▁skills": 5036,
      "▁race": 5037,
      "iant": 5038,
      "▁variety": 5039,
      "nThat": 5040,
      "usion": 5041,
      "超过": 5042,
      "▁overall": 5043,
      "▁qual": 5044,
      "只要": 5045,
      "▁meaning": 5046,
      "医疗": 5047,
      "nCom": 5048,
      "最终": 5049,
      "▁college": 5050,
      "集团": 5051,
      "hest": 5052,
      "▁rates": 5053,
      "▁edge": 5054,
      "ulated": 5055,
      "▁Austral": 5056,
      "▁Ang": 5057,
      "\\\";\\": 5058,
      "▁Mod": 5059,
      "家长": 5060,
      "美元": 5061,
      "记者": 5062,
      "ilies": 5063,
      "elcome": 5064,
      "▁Mac": 5065,
      "▁sec": 5066,
      "range": 5067,
      "else": 5068,
      "ae": 5069,
      "oken": 5070,
      "nHere": 5071,
      "');\\": 5072,
      "▁ST": 5073,
      "都有": 5074,
      "不可": 5075,
      "▁poor": 5076,
      "och": 5077,
      "▁administ": 5078,
      "Lambda": 5079,
      "wood": 5080,
      "▁camp": 5081,
      "iles": 5082,
      "▁blue": 5083,
      "▁sources": 5084,
      "que": 5085,
      "cor": 5086,
      "NN": 5087,
      "▁economic": 5088,
      "PI": 5089,
      "里的": 5090,
      "lement": 5091,
      "▁particularly": 5092,
      "exp": 5093,
      "nfrom": 5094,
      "以下": 5095,
      "▁beginning": 5096,
      "▁Any": 5097,
      "▁aim": 5098,
      "under": 5099,
      "View": 5100,
      "▁September": 5101,
      "MS": 5102,
      "assert": 5103,
      "▁apart": 5104,
      "▁algorithm": 5105,
      "nCh": 5106,
      "▁aware": 5107,
      "BA": 5108,
      "▁exam": 5109,
      "左右": 5110,
      "▁understanding": 5111,
      "▁Black": 5112,
      "dim": 5113,
      "▁active": 5114,
      "书记": 5115,
      "▁Sch": 5116,
      "ellent": 5117,
      "并不": 5118,
      "▁remain": 5119,
      "▁fans": 5120,
      "▁doll": 5121,
      "><": 5122,
      "ounds": 5123,
      "▁nation": 5124,
      "不得": 5125,
      "▁steps": 5126,
      "gl": 5127,
      "▁ir": 5128,
      "▁Tra": 5129,
      "诉讼": 5130,
      "ael": 5131,
      "rief": 5132,
      "nth": 5133,
      "▁paid": 5134,
      "▁transfer": 5135,
      "支付": 5136,
      "}-": 5137,
      "iforn": 5138,
      "otes": 5139,
      "ruary": 5140,
      "ald": 5141,
      "▁arriv": 5142,
      "▁August": 5143,
      "inner": 5144,
      "▁studies": 5145,
      "ario": 5146,
      "overline": 5147,
      "File": 5148,
      "落实": 5149,
      "▁struct": 5150,
      "And": 5151,
      "▁signal": 5152,
      "▁tim": 5153,
      "▁fear": 5154,
      "▁teams": 5155,
      "▁fields": 5156,
      "▁October": 5157,
      "Ps": 5158,
      "▁assume": 5159,
      "▁server": 5160,
      "▁Cou": 5161,
      "心理": 5162,
      "▁San": 5163,
      "rd": 5164,
      "▁Her": 5165,
      "阶段": 5166,
      "▁Ne": 5167,
      "bum": 5168,
      "定的": 5169,
      "ML": 5170,
      "▁truth": 5171,
      "[\\\\": 5172,
      "都会": 5173,
      "(-": 5174,
      "overn": 5175,
      "▁En": 5176,
      "▁tools": 5177,
      "▁appropri": 5178,
      "▁&&": 5179,
      "aint": 5180,
      "理解": 5181,
      "iao": 5182,
      "ondon": 5183,
      "▁November": 5184,
      "▁gone": 5185,
      "游戏": 5186,
      "▁club": 5187,
      "▁affect": 5188,
      "有人": 5189,
      "orge": 5190,
      "▁purpose": 5191,
      "▁solid": 5192,
      "Phi": 5193,
      "itc": 5194,
      "▁applied": 5195,
      "▁fresh": 5196,
      "ashington": 5197,
      "收入": 5198,
      "个月": 5199,
      "▁daily": 5200,
      "▁reasons": 5201,
      "本院": 5202,
      "▁sets": 5203,
      "▁reflect": 5204,
      "▁News": 5205,
      "▁trade": 5206,
      "▁IS": 5207,
      "oday": 5208,
      "▁military": 5209,
      "ldots": 5210,
      "kappa": 5211,
      "▁thous": 5212,
      "中华": 5213,
      "itute": 5214,
      "▁thank": 5215,
      "iers": 5216,
      "▁Sunday": 5217,
      "▁activity": 5218,
      "制度": 5219,
      "Se": 5220,
      "▁Cons": 5221,
      "▁benefits": 5222,
      "▁prefer": 5223,
      "▁December": 5224,
      "nOur": 5225,
      "及时": 5226,
      "ura": 5227,
      "▁activities": 5228,
      "▁depart": 5229,
      "trans": 5230,
      "▁birth": 5231,
      "▁names": 5232,
      "▁demand": 5233,
      "▁Department": 5234,
      "▁somew": 5235,
      "▁negative": 5236,
      "doc": 5237,
      "分钟": 5238,
      "▁Well": 5239,
      "ifornia": 5240,
      "level": 5241,
      "*/\\": 5242,
      "asy": 5243,
      "▁except": 5244,
      "政治": 5245,
      "▁strength": 5246,
      "▁impress": 5247,
      "Mj": 5248,
      "我国": 5249,
      "电影": 5250,
      "▁replace": 5251,
      "她的": 5252,
      "▁earn": 5253,
      "bolds": 5254,
      "ica": 5255,
      "充分": 5256,
      "clusion": 5257,
      "生的": 5258,
      "▁\\\\\\\\": 5259,
      "▁inform": 5260,
      "▁stress": 5261,
      "leg": 5262,
      "▁Sci": 5263,
      "经营": 5264,
      "▁Israel": 5265,
      "='": 5266,
      "▁correl": 5267,
      "Par": 5268,
      "▁linear": 5269,
      "idents": 5270,
      "▁П": 5271,
      "那个": 5272,
      "cap": 5273,
      "来越": 5274,
      "▁growing": 5275,
      "▁ded": 5276,
      "▁vector": 5277,
      "call": 5278,
      "▁nucle": 5279,
      "':": 5280,
      "属于": 5281,
      "boldsymbol": 5282,
      "▁emot": 5283,
      "icks": 5284,
      "]$": 5285,
      "nAll": 5286,
      "▁King": 5287,
      "▁devices": 5288,
      "EO": 5289,
      "▁advice": 5290,
      "utive": 5291,
      "gress": 5292,
      "▁requires": 5293,
      "Text": 5294,
      "▁repe": 5295,
      "思想": 5296,
      "▁customer": 5297,
      "明显": 5298,
      "dot": 5299,
      "entially": 5300,
      "CD": 5301,
      "▁patients": 5302,
      "▁push": 5303,
      "iments": 5304,
      "ми": 5305,
      "▁prop": 5306,
      "▁brain": 5307,
      "▁UK": 5308,
      "▁successful": 5309,
      "miss": 5310,
      "det": 5311,
      "越来越": 5312,
      "成了": 5313,
      "▁mentioned": 5314,
      "▁Windows": 5315,
      "▁increased": 5316,
      "▁Comp": 5317,
      "▁safety": 5318,
      "▁Most": 5319,
      "▁connection": 5320,
      "▁window": 5321,
      "▁immediately": 5322,
      "只能": 5323,
      "prime": 5324,
      "undred": 5325,
      "▁wind": 5326,
      "▁generally": 5327,
      "▁а": 5328,
      "▁equal": 5329,
      "▁expand": 5330,
      "▁ord": 5331,
      "▁heat": 5332,
      "usiness": 5333,
      "▁gradu": 5334,
      "▁providing": 5335,
      "▁Facebook": 5336,
      "▁learned": 5337,
      "规划": 5338,
      "Pajama": 5339,
      "RedPajama": 5340,
      "plate": 5341,
      "▁Saturday": 5342,
      "▁layer": 5343,
      "▁Up": 5344,
      "▁controll": 5345,
      "来看": 5346,
      "NAME": 5347,
      "▁budget": 5348,
      "lib": 5349,
      "▁helps": 5350,
      "ocal": 5351,
      "▁trip": 5352,
      "▁eight": 5353,
      "▁easier": 5354,
      "▁scient": 5355,
      "arant": 5356,
      "run": 5357,
      "coming": 5358,
      "}}{": 5359,
      "px": 5360,
      "But": 5361,
      "▁maximum": 5362,
      "▁bur": 5363,
      "▁aspect": 5364,
      "itiz": 5365,
      "区域": 5366,
      "▁Pat": 5367,
      "▁magnetic": 5368,
      "atically": 5369,
      "function": 5370,
      "▁construct": 5371,
      "出的": 5372,
      "▁IN": 5373,
      "▁drop": 5374,
      "▁transform": 5375,
      "inger": 5376,
      "▁weak": 5377,
      "overed": 5378,
      "aled": 5379,
      "▁greater": 5380,
      "tee": 5381,
      "';\\": 5382,
      "{-": 5383,
      "▁warm": 5384,
      "ara": 5385,
      "▁notice": 5386,
      "▁rock": 5387,
      "▁appreci": 5388,
      "ospital": 5389,
      "权利": 5390,
      "alle": 5391,
      "正常": 5392,
      "▁science": 5393,
      "▁whatever": 5394,
      "▁central": 5395,
      "▁clearly": 5396,
      "▁happens": 5397,
      "mercial": 5398,
      "▁La": 5399,
      "整个": 5400,
      "▁String": 5401,
      "xy": 5402,
      "▁perhaps": 5403,
      "▁surv": 5404,
      "▁appears": 5405,
      "idden": 5406,
      "▁produce": 5407,
      "以来": 5408,
      "销售": 5409,
      "而是": 5410,
      "任务": 5411,
      "▁Post": 5412,
      "ios": 5413,
      "which": 5414,
      "面的": 5415,
      "目的": 5416,
      "cation": 5417,
      "▁shape": 5418,
      "▁weekend": 5419,
      "asc": 5420,
      "▁dog": 5421,
      "Error": 5422,
      "▁org": 5423,
      ")(": 5424,
      "告诉": 5425,
      "▁mobile": 5426,
      "Object": 5427,
      "izations": 5428,
      "力量": 5429,
      "▁spot": 5430,
      "erences": 5431,
      "▁unc": 5432,
      "▁hous": 5433,
      "});\\": 5434,
      "ett": 5435,
      "▁decre": 5436,
      "▁Soc": 5437,
      "▁existing": 5438,
      "▁digital": 5439,
      "ares": 5440,
      "经验": 5441,
      "的情况": 5442,
      "▁stream": 5443,
      "rupt": 5444,
      "ifying": 5445,
      "edding": 5446,
      "▁Are": 5447,
      "▁moved": 5448,
      "▁knows": 5449,
      "State": 5450,
      "面对": 5451,
      "首先": 5452,
      "委员": 5453,
      "改变": 5454,
      "推动": 5455,
      "known": 5456,
      "▁wave": 5457,
      "▁Sy": 5458,
      "系列": 5459,
      "bon": 5460,
      "▁India": 5461,
      "pdf": 5462,
      "▁rank": 5463,
      "▁reports": 5464,
      "pair": 5465,
      "▁creating": 5466,
      "friend": 5467,
      "媒体": 5468,
      "rench": 5469,
      "位置": 5470,
      "范围": 5471,
      "tic": 5472,
      "▁Spe": 5473,
      "istry": 5474,
      "MzA": 5475,
      "严重": 5476,
      "ni": 5477,
      "▁reduce": 5478,
      "▁ri": 5479,
      "abase": 5480,
      "де": 5481,
      "▁spread": 5482,
      "▁bill": 5483,
      "不少": 5484,
      "▁client": 5485,
      "▁seeing": 5486,
      "也会": 5487,
      "▁integ": 5488,
      "改革": 5489,
      "▁camera": 5490,
      "▁Figure": 5491,
      "▁organization": 5492,
      "▁smart": 5493,
      "▁TH": 5494,
      "apter": 5495,
      "▁Trans": 5496,
      "生态": 5497,
      "▁coord": 5498,
      "▁core": 5499,
      "▁compos": 5500,
      "调整": 5501,
      "▁virt": 5502,
      "abled": 5503,
      "▁Monday": 5504,
      "在于": 5505,
      "▁billion": 5506,
      "▁evalu": 5507,
      "▁hus": 5508,
      "while": 5509,
      "▁histor": 5510,
      "▁purchase": 5511,
      "from": 5512,
      "▁quantum": 5513,
      "DE": 5514,
      "▁anti": 5515,
      "▁node": 5516,
      "AY": 5517,
      "连接": 5518,
      "▁Art": 5519,
      "anned": 5520,
      "Net": 5521,
      "▁components": 5522,
      "▁micro": 5523,
      "取得": 5524,
      "想要": 5525,
      "干部": 5526,
      "▁strategy": 5527,
      "▁status": 5528,
      "textwidth": 5529,
      "▁constrain": 5530,
      "reme": 5531,
      "tout": 5532,
      "▁feet": 5533,
      "卫生": 5534,
      "▁photos": 5535,
      "perty": 5536,
      "ipping": 5537,
      "▁onto": 5538,
      "IF": 5539,
      "▁Jes": 5540,
      "▁Ass": 5541,
      "▁meas": 5542,
      "▁culture": 5543,
      "▁individuals": 5544,
      "▁Washington": 5545,
      "不知道": 5546,
      "▁strugg": 5547,
      "ния": 5548,
      "▁followed": 5549,
      "▁tree": 5550,
      "▁California": 5551,
      "▁trou": 5552,
      "▁reference": 5553,
      "PC": 5554,
      "▁acqu": 5555,
      "▁insurance": 5556,
      "▁connected": 5557,
      "▁closed": 5558,
      "lam": 5559,
      "orrow": 5560,
      "Time": 5561,
      "▁PM": 5562,
      "config": 5563,
      "▁classes": 5564,
      "ipped": 5565,
      "icate": 5566,
      "成绩": 5567,
      "aa": 5568,
      "▁transition": 5569,
      "成长": 5570,
      "关键": 5571,
      "措施": 5572,
      "force": 5573,
      "▁challenge": 5574,
      "▁probability": 5575,
      "▁boy": 5576,
      "进行了": 5577,
      "▁rule": 5578,
      "}+": 5579,
      "Exception": 5580,
      "▁baby": 5581,
      "▁named": 5582,
      "▁traditional": 5583,
      "▁grand": 5584,
      "▁enh": 5585,
      "▁families": 5586,
      "iance": 5587,
      "指导": 5588,
      "▁PC": 5589,
      "▁announced": 5590,
      "▁kill": 5591,
      "▁largest": 5592,
      "▁score": 5593,
      "形式": 5594,
      "事实": 5595,
      "▁libr": 5596,
      "▁eye": 5597,
      "▁sav": 5598,
      "▁marketing": 5599,
      "▁damage": 5600,
      "电子": 5601,
      "别人": 5602,
      "gu": 5603,
      "设置": 5604,
      "▁London": 5605,
      "上述": 5606,
      "▁kept": 5607,
      "▁advert": 5608,
      "来自": 5609,
      "▁Air": 5610,
      "▁firm": 5611,
      "行政": 5612,
      "新闻": 5613,
      "▁Paul": 5614,
      "png": 5615,
      "osen": 5616,
      "▁showed": 5617,
      "后的": 5618,
      "▁remains": 5619,
      "▁gold": 5620,
      "▁White": 5621,
      "▁selection": 5622,
      "▁OF": 5623,
      "下的": 5624,
      "▁catch": 5625,
      "▁…": 5626,
      "ме": 5627,
      "▁remove": 5628,
      "▁truly": 5629,
      "判决": 5630,
      "▁photo": 5631,
      "gment": 5632,
      "▁vote": 5633,
      "优秀": 5634,
      "▁prices": 5635,
      "ros": 5636,
      "▁simpl": 5637,
      "▁federal": 5638,
      "circ": 5639,
      "▁chem": 5640,
      "▁determine": 5641,
      "▁exerc": 5642,
      "mar": 5643,
      "▁sequence": 5644,
      "host": 5645,
      "▁tend": 5646,
      "mmet": 5647,
      "主题": 5648,
      "▁floor": 5649,
      "node": 5650,
      "ensions": 5651,
      "▁jobs": 5652,
      "estern": 5653,
      "reedom": 5654,
      "▁channel": 5655,
      "ulate": 5656,
      "工业": 5657,
      "▁tick": 5658,
      "▁Pal": 5659,
      "▁mar": 5660,
      "Add": 5661,
      "▁David": 5662,
      "▁plant": 5663,
      "成本": 5664,
      "hich": 5665,
      "▁symmet": 5666,
      "▁heavy": 5667,
      "▁generated": 5668,
      "▁frame": 5669,
      "free": 5670,
      "考试": 5671,
      "全部": 5672,
      "ensional": 5673,
      "▁Why": 5674,
      "ression": 5675,
      "▁к": 5676,
      "促进": 5677,
      "▁otherwise": 5678,
      "ortunately": 5679,
      "}=\\\\": 5680,
      "▁novel": 5681,
      "Item": 5682,
      "active": 5683,
      "gt": 5684,
      "▁finding": 5685,
      "▁daught": 5686,
      "相信": 5687,
      "nAb": 5688,
      "▁restrict": 5689,
      "认识": 5690,
      "后来": 5691,
      "eloc": 5692,
      "▁discussion": 5693,
      "经常": 5694,
      "培训": 5695,
      "▁hundred": 5696,
      "What": 5697,
      "▁Health": 5698,
      "rive": 5699,
      "▁fat": 5700,
      "▁Cong": 5701,
      "▁quarter": 5702,
      "▁celebr": 5703,
      "培养": 5704,
      "Un": 5705,
      "▁February": 5706,
      "icrosoft": 5707,
      "▁electric": 5708,
      "▁Apple": 5709,
      "cn": 5710,
      "▁cold": 5711,
      "▁internet": 5712,
      "来了": 5713,
      "ford": 5714,
      "▁attract": 5715,
      "SU": 5716,
      "▁unf": 5717,
      "core": 5718,
      "▁voice": 5719,
      "No": 5720,
      "ida": 5721,
      "另外": 5722,
      "▁presence": 5723,
      "▁runs": 5724,
      "ville": 5725,
      "Man": 5726,
      "▁adjust": 5727,
      "证据": 5728,
      "▁sen": 5729,
      "▁noise": 5730,
      "保证": 5731,
      "ipment": 5732,
      "▁component": 5733,
      "双方": 5734,
      "▁powerful": 5735,
      "toutiao": 5736,
      "▁interview": 5737,
      "phone": 5738,
      "▁construction": 5739,
      "▁society": 5740,
      "CL": 5741,
      "gn": 5742,
      "▁leads": 5743,
      "▁priv": 5744,
      "考虑": 5745,
      "Inf": 5746,
      "▁clients": 5747,
      "他们的": 5748,
      "压力": 5749,
      "▁proof": 5750,
      "ado": 5751,
      "tex": 5752,
      "▁scene": 5753,
      "▁extremely": 5754,
      "▁benefit": 5755,
      "roy": 5756,
      "▁exists": 5757,
      "xx": 5758,
      "文明": 5759,
      "▁Associ": 5760,
      "成立": 5761,
      "▁lots": 5762,
      "▁prem": 5763,
      "▁Street": 5764,
      "olar": 5765,
      "▁schools": 5766,
      "flow": 5767,
      "▁Section": 5768,
      "▁planning": 5769,
      "FL": 5770,
      "▁capital": 5771,
      "aces": 5772,
      "最高": 5773,
      "lete": 5774,
      "iques": 5775,
      "▁concer": 5776,
      "联合": 5777,
      "esome": 5778,
      "▁selected": 5779,
      "▁factors": 5780,
      "▁vac": 5781,
      "主义": 5782,
      "idering": 5783,
      "Is": 5784,
      "▁Sec": 5785,
      "▁passed": 5786,
      "联系": 5787,
      "Ind": 5788,
      "▁primary": 5789,
      "意义": 5790,
      "▁dress": 5791,
      "▁ahead": 5792,
      "安排": 5793,
      "((": 5794,
      "意见": 5795,
      "▁produced": 5796,
      "拥有": 5797,
      "优势": 5798,
      "▁materials": 5799,
      "▁Play": 5800,
      "针对": 5801,
      "基金": 5802,
      "▁wood": 5803,
      "scale": 5804,
      "▁Court": 5805,
      "▁luck": 5806,
      "▁seven": 5807,
      "规模": 5808,
      "事情": 5809,
      "];\\": 5810,
      "▁links": 5811,
      "▁Other": 5812,
      "▁restaur": 5813,
      "▁performed": 5814,
      "减少": 5815,
      "ellig": 5816,
      "acity": 5817,
      "arx": 5818,
      "▁pow": 5819,
      "人才": 5820,
      "по": 5821,
      "▁loved": 5822,
      "▁evolution": 5823,
      "▁advantage": 5824,
      "isc": 5825,
      "/\"": 5826,
      "utely": 5827,
      "dots": 5828,
      "深入": 5829,
      "▁Ke": 5830,
      "▁transport": 5831,
      "▁album": 5832,
      "▁goals": 5833,
      "▁define": 5834,
      "▁bul": 5835,
      "Ad": 5836,
      "核心": 5837,
      "十分": 5838,
      "================": 5839,
      "nre": 5840,
      "专家": 5841,
      "幸福": 5842,
      "▁radio": 5843,
      "劳动": 5844,
      "多少": 5845,
      "▁opinion": 5846,
      "▁width": 5847,
      "▁excellent": 5848,
      "olic": 5849,
      "nWhile": 5850,
      "▁mist": 5851,
      "体系": 5852,
      "vest": 5853,
      "▁helped": 5854,
      "▁girls": 5855,
      "毕业": 5856,
      "result": 5857,
      "start": 5858,
      "inn": 5859,
      "otic": 5860,
      "▁determined": 5861,
      "nEx": 5862,
      "可是": 5863,
      "nthat": 5864,
      "▁husband": 5865,
      "消息": 5866,
      "▁thanks": 5867,
      "电话": 5868,
      "apping": 5869,
      "▁older": 5870,
      "尤其": 5871,
      "▁epis": 5872,
      "▁wat": 5873,
      "PU": 5874,
      "▁income": 5875,
      "程度": 5876,
      "▁reality": 5877,
      "▁relevant": 5878,
      "vision": 5879,
      "▁brother": 5880,
      "▁cast": 5881,
      "▁har": 5882,
      "▁panel": 5883,
      "▁handle": 5884,
      "info": 5885,
      "abla": 5886,
      "▁objects": 5887,
      "▁stick": 5888,
      "////////": 5889,
      "▁neut": 5890,
      "▁adopt": 5891,
      "▁throw": 5892,
      "cit": 5893,
      "check": 5894,
      "对方": 5895,
      "▁fol": 5896,
      "▁cru": 5897,
      "▁Di": 5898,
      "group": 5899,
      "arxiv": 5900,
      "▁posts": 5901,
      "▁Green": 5902,
      "现代": 5903,
      "▁International": 5904,
      "ctors": 5905,
      "客户": 5906,
      "▁Def": 5907,
      "▁healthy": 5908,
      "居民": 5909,
      "▁showing": 5910,
      "BS": 5911,
      "团队": 5912,
      "cious": 5913,
      "检测": 5914,
      "▁appropriate": 5915,
      "▁из": 5916,
      "▁Trump": 5917,
      "▁frequency": 5918,
      "flo": 5919,
      "());\\": 5920,
      "然而": 5921,
      "▁Internet": 5922,
      "▁economy": 5923,
      "▁East": 5924,
      "▁array": 5925,
      "semb": 5926,
      "▁II": 5927,
      "▁NOT": 5928,
      "特征": 5929,
      "▁forum": 5930,
      "▁counter": 5931,
      "上诉": 5932,
      "inct": 5933,
      "▁harm": 5934,
      "▁station": 5935,
      "▁vehicle": 5936,
      "承担": 5937,
      "pled": 5938,
      "▁package": 5939,
      "anging": 5940,
      "▁upper": 5941,
      "▁lose": 5942,
      "▁:=": 5943,
      "经历": 5944,
      "arr": 5945,
      "▁spirit": 5946,
      "img": 5947,
      ")=\\\\": 5948,
      "ATE": 5949,
      "ico": 5950,
      "td": 5951,
      "▁adding": 5952,
      "pective": 5953,
      "▁biggest": 5954,
      "▁meant": 5955,
      "pping": 5956,
      "nHowever": 5957,
      "PL": 5958,
      "Requ": 5959,
      "▁calls": 5960,
      "▁European": 5961,
      "▁responsible": 5962,
      "uracy": 5963,
      "men": 5964,
      "orry": 5965,
      "明确": 5966,
      "▁thread": 5967,
      "▁Out": 5968,
      "▁cop": 5969,
      "确保": 5970,
      "article": 5971,
      "▁smooth": 5972,
      "的工作": 5973,
      "▁regist": 5974,
      "▁bright": 5975,
      "length": 5976,
      "制造": 5977,
      "nSh": 5978,
      "▁brow": 5979,
      "ashion": 5980,
      "airs": 5981,
      "▁К": 5982,
      "race": 5983,
      "term": 5984,
      "▁minimum": 5985,
      "PT": 5986,
      "dev": 5987,
      "build": 5988,
      "▁Ref": 5989,
      "▁secret": 5990,
      "发挥": 5991,
      "olve": 5992,
      "视频": 5993,
      "▁Jack": 5994,
      "igen": 5995,
      "aced": 5996,
      "▁movement": 5997,
      "丰富": 5998,
      "▁psy": 5999,
      "nabla": 6000,
      "每个": 6001,
      "ca": 6002,
      "iation": 6003,
      "确定": 6004,
      "职业": 6005,
      "pty": 6006,
      "▁actions": 6007,
      "文章": 6008,
      "uit": 6009,
      "local": 6010,
      "结束": 6011,
      "▁supported": 6012,
      "▁equival": 6013,
      "▁watching": 6014,
      "▁owners": 6015,
      "▁Thanks": 6016,
      "Le": 6017,
      "事故": 6018,
      "多的": 6019,
      "分享": 6020,
      "GB": 6021,
      "普通": 6022,
      "▁Because": 6023,
      "antic": 6024,
      "overy": 6025,
      "▁testing": 6026,
      "All": 6027,
      "▁Mag": 6028,
      "icity": 6029,
      "▁director": 6030,
      "▁surround": 6031,
      "othes": 6032,
      "▁unless": 6033,
      "▁Democr": 6034,
      "▁volume": 6035,
      "▁Commun": 6036,
      "▁Ben": 6037,
      "▁domain": 6038,
      "[]": 6039,
      "md": 6040,
      "▁architect": 6041,
      "▁Phil": 6042,
      "break": 6043,
      "[\\": 6044,
      "rely": 6045,
      "▁driving": 6046,
      "look": 6047,
      "ancy": 6048,
      "▁slightly": 6049,
      "▁posted": 6050,
      "▁highest": 6051,
      "▁wonderful": 6052,
      "Key": 6053,
      "aming": 6054,
      "▁Tuesday": 6055,
      "My": 6056,
      "rey": 6057,
      "▁honest": 6058,
      "的高": 6059,
      "无论": 6060,
      ";\\\\": 6061,
      "一个人": 6062,
      "rian": 6063,
      "\\\\}$": 6064,
      "ups": 6065,
      "▁Service": 6066,
      "arp": 6067,
      "berg": 6068,
      "▁peace": 6069,
      "venue": 6070,
      "rees": 6071,
      "▁trend": 6072,
      "ago": 6073,
      "▁civil": 6074,
      "▁explain": 6075,
      "▁Good": 6076,
      "za": 6077,
      "&=": 6078,
      "▁disease": 6079,
      "▁rid": 6080,
      "pper": 6081,
      "▁pictures": 6082,
      "▁veloc": 6083,
      "▁serve": 6084,
      "▁mostly": 6085,
      "othing": 6086,
      "stream": 6087,
      "▁church": 6088,
      "App": 6089,
      "▁strateg": 6090,
      "▁Indian": 6091,
      "▁Great": 6092,
      "▁Rem": 6093,
      "ements": 6094,
      "TS": 6095,
      "base": 6096,
      "fit": 6097,
      "eria": 6098,
      "▁Table": 6099,
      "先生": 6100,
      "▁AND": 6101,
      "志愿": 6102,
      "年轻": 6103,
      "▁fuck": 6104,
      "▁lock": 6105,
      "▁motion": 6106,
      "▁fant": 6107,
      "CE": 6108,
      "▁Christian": 6109,
      "▁norm": 6110,
      "▁generation": 6111,
      "pected": 6112,
      "tim": 6113,
      "▁invent": 6114,
      "防控": 6115,
      "▁plus": 6116,
      "另一": 6117,
      "▁waiting": 6118,
      "农村": 6119,
      "▁Gl": 6120,
      "▁finished": 6121,
      "▁Jesus": 6122,
      "▁PR": 6123,
      "▁majority": 6124,
      "办法": 6125,
      "▁gain": 6126,
      "让人": 6127,
      "ersion": 6128,
      "▁introduced": 6129,
      "▁Law": 6130,
      "oman": 6131,
      "中央": 6132,
      "inese": 6133,
      "▁script": 6134,
      "urity": 6135,
      "ashed": 6136,
      "draw": 6137,
      "▁visual": 6138,
      "▁ratio": 6139,
      "▁glass": 6140,
      "▁Fe": 6141,
      "▁starts": 6142,
      "ruit": 6143,
      "▁arm": 6144,
      "OV": 6145,
      "iling": 6146,
      "Phone": 6147,
      "▁corpor": 6148,
      "▁guarant": 6149,
      "▁operation": 6150,
      "一年": 6151,
      "init": 6152,
      "▁Oh": 6153,
      "女人": 6154,
      "党员": 6155,
      "▁faith": 6156,
      "▁expert": 6157,
      "▁Canada": 6158,
      "都不": 6159,
      "▁Em": 6160,
      "icol": 6161,
      "稳定": 6162,
      "▁Arm": 6163,
      "pid": 6164,
      "▁respond": 6165,
      "▁accur": 6166,
      "bed": 6167,
      "▁employees": 6168,
      "arden": 6169,
      "▁Thursday": 6170,
      "▁Direct": 6171,
      "house": 6172,
      "▁split": 6173,
      "▁bought": 6174,
      "▁shift": 6175,
      "rate": 6176,
      "▁jump": 6177,
      "▁finite": 6178,
      "/*": 6179,
      "▁efficient": 6180,
      "▁switch": 6181,
      "nNo": 6182,
      "▁Christmas": 6183,
      "▁toward": 6184,
      "▁galax": 6185,
      "道路": 6186,
      "主动": 6187,
      "▁Thus": 6188,
      "eless": 6189,
      "▁burn": 6190,
      "▁assess": 6191,
      "▁prove": 6192,
      "iency": 6193,
      "▁views": 6194,
      "的事情": 6195,
      "▁Mor": 6196,
      "▁button": 6197,
      "▁„": 6198,
      "pass": 6199,
      "poss": 6200,
      "▁//": 6201,
      "amily": 6202,
      "量的": 6203,
      "▁opening": 6204,
      "image": 6205,
      "▁rent": 6206,
      "▁er": 6207,
      "整体": 6208,
      "▁conserv": 6209,
      "▁shared": 6210,
      "la": 6211,
      "oding": 6212,
      "▁born": 6213,
      "})\\": 6214,
      "▁occas": 6215,
      "▁pet": 6216,
      "olf": 6217,
      "▁missing": 6218,
      "于是": 6219,
      "vari": 6220,
      "实践": 6221,
      "▁willing": 6222,
      "vol": 6223,
      "▁Wednesday": 6224,
      "▁agreement": 6225,
      "abs": 6226,
      "▁separate": 6227,
      "well": 6228,
      "bsp": 6229,
      "▁nut": 6230,
      "ancing": 6231,
      "▁spectrum": 6232,
      "公安": 6233,
      "▁sexual": 6234,
      "rics": 6235,
      "long": 6236,
      "TH": 6237,
      "Fig": 6238,
      "▁offered": 6239,
      "调查": 6240,
      "有了": 6241,
      "DF": 6242,
      "长期": 6243,
      "▁traffic": 6244,
      "▁partners": 6245,
      "疾病": 6246,
      "cf": 6247,
      "色的": 6248,
      "▁interpre": 6249,
      "▁ax": 6250,
      "▁resist": 6251,
      "▁farm": 6252,
      "▁relative": 6253,
      "Log": 6254,
      "▁cells": 6255,
      "数字": 6256,
      "ota": 6257,
      "▁finish": 6258,
      "го": 6259,
      "▁argument": 6260,
      "▁AM": 6261,
      "程序": 6262,
      "uations": 6263,
      "▁operator": 6264,
      "{(": 6265,
      "几个": 6266,
      "样的": 6267,
      "▁efforts": 6268,
      "▁caused": 6269,
      "▁util": 6270,
      "older": 6271,
      "▁TO": 6272,
      "正式": 6273,
      "▁wild": 6274,
      "▁peak": 6275,
      "osh": 6276,
      "rab": 6277,
      "▁Rec": 6278,
      "▁beat": 6279,
      "文件": 6280,
      "车辆": 6281,
      "iable": 6282,
      "icip": 6283,
      "Pl": 6284,
      "▁despite": 6285,
      "sin": 6286,
      "▁previously": 6287,
      "应当": 6288,
      "▁examples": 6289,
      "num": 6290,
      "eration": 6291,
      "abilities": 6292,
      "▁commercial": 6293,
      "肯定": 6294,
      "EX": 6295,
      "▁citiz": 6296,
      "▁letter": 6297,
      "▁Tex": 6298,
      "си": 6299,
      "otal": 6300,
      "▁deliver": 6301,
      "▁Govern": 6302,
      "▁Dist": 6303,
      "▁weap": 6304,
      "onal": 6305,
      "cell": 6306,
      "▁investment": 6307,
      "▁pages": 6308,
      "▁danger": 6309,
      "此次": 6310,
      "商业": 6311,
      "自身": 6312,
      "▁British": 6313,
      "зи": 6314,
      "▁interaction": 6315,
      "协议": 6316,
      "▁workers": 6317,
      "itchen": 6318,
      "▁neighbor": 6319,
      "▁mill": 6320,
      "▁Ac": 6321,
      "▁Therefore": 6322,
      "▁conver": 6323,
      "▁drug": 6324,
      "▁batter": 6325,
      "bin": 6326,
      "ilton": 6327,
      "ads": 6328,
      "习惯": 6329,
      "说明": 6330,
      "▁Over": 6331,
      "▁format": 6332,
      "驾驶": 6333,
      "true": 6334,
      "akers": 6335,
      "nSince": 6336,
      "▁crow": 6337,
      "▁remind": 6338,
      "体验": 6339,
      "食品": 6340,
      "pat": 6341,
      "cknow": 6342,
      "▁failed": 6343,
      "▁regarding": 6344,
      "SC": 6345,
      "▁seemed": 6346,
      "▁supply": 6347,
      "降低": 6348,
      "create": 6349,
      "子的": 6350,
      "wid": 6351,
      "npro": 6352,
      "▁profile": 6353,
      "▁vs": 6354,
      "▁units": 6355,
      "itz": 6356,
      "▁pattern": 6357,
      "音乐": 6358,
      "▁Many": 6359,
      "▁die": 6360,
      "▁RE": 6361,
      "▁fig": 6362,
      "########": 6363,
      "cs": 6364,
      "能源": 6365,
      "▁vert": 6366,
      "▁flat": 6367,
      "iform": 6368,
      "enses": 6369,
      "version": 6370,
      "困难": 6371,
      "▁reduced": 6372,
      "poses": 6373,
      "▁See": 6374,
      "机关": 6375,
      "装置": 6376,
      "▁afford": 6377,
      "eah": 6378,
      "因素": 6379,
      "▁Found": 6380,
      "▁leader": 6381,
      "tes": 6382,
      "加入": 6383,
      "nThen": 6384,
      "▁sounds": 6385,
      "▁dry": 6386,
      "▁definition": 6387,
      "ivery": 6388,
      "▁requirements": 6389,
      "创业": 6390,
      "员工": 6391,
      "erry": 6392,
      "▁Cap": 6393,
      "PA": 6394,
      "▁IT": 6395,
      "▁tow": 6396,
      "▁guide": 6397,
      "Class": 6398,
      "vered": 6399,
      "ervices": 6400,
      "自由": 6401,
      "▁daughter": 6402,
      "▁Big": 6403,
      "fa": 6404,
      "HT": 6405,
      "IA": 6406,
      "▁died": 6407,
      "rial": 6408,
      "igation": 6409,
      "ъл": 6410,
      "urrent": 6411,
      "orial": 6412,
      "augh": 6413,
      "iled": 6414,
      "▁apparent": 6415,
      "▁van": 6416,
      "▁businesses": 6417,
      "▁ton": 6418,
      "Map": 6419,
      "can": 6420,
      "umin": 6421,
      "▁excited": 6422,
      "Be": 6423,
      "DA": 6424,
      "▁expression": 6425,
      "▁supposed": 6426,
      "避免": 6427,
      "-\\": 6428,
      "ologies": 6429,
      "▁officials": 6430,
      "▁Each": 6431,
      "▁ended": 6432,
      "事件": 6433,
      "uthors": 6434,
      "不同的": 6435,
      "ansion": 6436,
      "Model": 6437,
      "main": 6438,
      "▁incred": 6439,
      "一定要": 6440,
      "▁Web": 6441,
      "▁manager": 6442,
      "▁Open": 6443,
      "There": 6444,
      "▁eventually": 6445,
      "▁sale": 6446,
      "Service": 6447,
      "土地": 6448,
      "▁Port": 6449,
      "ifier": 6450,
      "▁description": 6451,
      "▁victim": 6452,
      "▁Hol": 6453,
      "▁Book": 6454,
      "▁Group": 6455,
      "▁driver": 6456,
      "▁keeping": 6457,
      "{{": 6458,
      ")/": 6459,
      "ideo": 6460,
      "▁combination": 6461,
      "▁beg": 6462,
      "▁innov": 6463,
      "▁Inc": 6464,
      "▁incor": 6465,
      "▁discussed": 6466,
      "tem": 6467,
      "▁asking": 6468,
      "年来": 6469,
      "ride": 6470,
      "ние": 6471,
      "▁samples": 6472,
      "▁exhib": 6473,
      "Sigma": 6474,
      "▁sweet": 6475,
      "▁James": 6476,
      "▁cards": 6477,
      "ka": 6478,
      "▁owner": 6479,
      "农业": 6480,
      "star": 6481,
      "认真": 6482,
      "rec": 6483,
      "案件": 6484,
      "▁foreign": 6485,
      "快速": 6486,
      "▁consequ": 6487,
      "▁forms": 6488,
      "联网": 6489,
      "▁Hall": 6490,
      "▁Congress": 6491,
      "citet": 6492,
      "▁kid": 6493,
      "▁Time": 6494,
      "符合": 6495,
      "▁master": 6496,
      "▁changing": 6497,
      "▁videos": 6498,
      "生物": 6499,
      "apers": 6500,
      "▁equipment": 6501,
      "▁cert": 6502,
      "▁Bel": 6503,
      "▁pool": 6504,
      "▁General": 6505,
      "▁killed": 6506,
      "▁cash": 6507,
      "打造": 6508,
      "课程": 6509,
      "▁miles": 6510,
      "scrib": 6511,
      "▁continued": 6512,
      "anged": 6513,
      "▁comparison": 6514,
      "▁detect": 6515,
      "subset": 6516,
      "▁Council": 6517,
      "民族": 6518,
      "nThese": 6519,
      "></": 6520,
      "▁doubt": 6521,
      "cho": 6522,
      "TR": 6523,
      "▁yield": 6524,
      "▁М": 6525,
      "▁storage": 6526,
      "的新": 6527,
      ")^{": 6528,
      "▁networks": 6529,
      "nam": 6530,
      "▁People": 6531,
      "Path": 6532,
      "terday": 6533,
      "小学": 6534,
      "的重要": 6535,
      "▁thoughts": 6536,
      "规范": 6537,
      "▁forget": 6538,
      "▁Ent": 6539,
      "▁resolution": 6540,
      "的时间": 6541,
      "▁Del": 6542,
      "一切": 6543,
      "clos": 6544,
      "&\\": 6545,
      "How": 6546,
      "▁Dan": 6547,
      "▁~": 6548,
      "tw": 6549,
      "cket": 6550,
      "▁football": 6551,
      "事业": 6552,
      "▁Б": 6553,
      "PE": 6554,
      "note": 6555,
      "▁increases": 6556,
      "▁Although": 6557,
      "▁ID": 6558,
      "▁leaving": 6559,
      "了一个": 6560,
      "orph": 6561,
      "▁princ": 6562,
      "这次": 6563,
      "nbsp": 6564,
      "▁съ": 6565,
      "▁absolutely": 6566,
      "▁removed": 6567,
      "SD": 6568,
      "▁hyp": 6569,
      "ears": 6570,
      "面积": 6571,
      "ameter": 6572,
      "▁spending": 6573,
      "Form": 6574,
      "isation": 6575,
      "▁relax": 6576,
      "▁street": 6577,
      "uled": 6578,
      "Info": 6579,
      "▁Us": 6580,
      "▁holid": 6581,
      "thm": 6582,
      "▁ideal": 6583,
      "▁ка": 6584,
      "▁Lin": 6585,
      "▁pros": 6586,
      "lict": 6587,
      "▁В": 6588,
      "▁processes": 6589,
      "集中": 6590,
      "cdots": 6591,
      "▁wid": 6592,
      "▁French": 6593,
      "▁placed": 6594,
      "eles": 6595,
      "tical": 6596,
      "Def": 6597,
      "电视": 6598,
      "▁Yes": 6599,
      "izer": 6600,
      "▁Bay": 6601,
      "最近": 6602,
      "$_": 6603,
      "▁established": 6604,
      "▁balance": 6605,
      "ows": 6606,
      "▁nor": 6607,
      "dro": 6608,
      "如今": 6609,
      "▁grant": 6610,
      "ampions": 6611,
      "ска": 6612,
      "ча": 6613,
      "allel": 6614,
      "▁operations": 6615,
      "uman": 6616,
      "Ent": 6617,
      "▁techniques": 6618,
      "引起": 6619,
      "相对": 6620,
      "▁holds": 6621,
      "▁hotel": 6622,
      "SI": 6623,
      "做到": 6624,
      "ishes": 6625,
      "竞争": 6626,
      "大多": 6627,
      "nPro": 6628,
      "ensor": 6629,
      "▁fill": 6630,
      "▁chosen": 6631,
      "▁row": 6632,
      "▁award": 6633,
      "▁gift": 6634,
      "▁wear": 6635,
      "kin": 6636,
      "▁entry": 6637,
      "pg": 6638,
      "▁brief": 6639,
      "reate": 6640,
      "”“": 6641,
      "▁communication": 6642,
      "▁laws": 6643,
      "▁Det": 6644,
      "▁installed": 6645,
      "▁cas": 6646,
      "依法": 6647,
      "▁height": 6648,
      "Event": 6649,
      "▁Note": 6650,
      "sole": 6651,
      "▁symb": 6652,
      "真实": 6653,
      "▁rain": 6654,
      "费用": 6655,
      "▁Once": 6656,
      "▁helping": 6657,
      "Read": 6658,
      "iverse": 6659,
      "otimes": 6660,
      "nFrom": 6661,
      "With": 6662,
      "▁claims": 6663,
      "▁cancer": 6664,
      "▁College": 6665,
      "▁sports": 6666,
      "MzU": 6667,
      "▁pure": 6668,
      "▁internal": 6669,
      "▁coach": 6670,
      "根本": 6671,
      "▁essential": 6672,
      "总是": 6673,
      "}|": 6674,
      "▁century": 6675,
      "\\\\+": 6676,
      "▁bath": 6677,
      "▁magn": 6678,
      "ensure": 6679,
      "战略": 6680,
      "▁comfortable": 6681,
      "▁Fin": 6682,
      "▁suppl": 6683,
      "▁session": 6684,
      "下降": 6685,
      "▁shut": 6686,
      "理论": 6687,
      "MC": 6688,
      "▁consistent": 6689,
      "遇到": 6690,
      "▁ing": 6691,
      "files": 6692,
      "mes": 6693,
      "ptions": 6694,
      "▁dataset": 6695,
      ")-": 6696,
      "香港": 6697,
      "resents": 6698,
      "▁adapt": 6699,
      "▁covered": 6700,
      "vention": 6701,
      "▁Tom": 6702,
      "itors": 6703,
      "SA": 6704,
      "User": 6705,
      "▁kick": 6706,
      "▁tight": 6707,
      "block": 6708,
      "▁->": 6709,
      "▁vill": 6710,
      "▁defense": 6711,
      "ixt": 6712,
      "Config": 6713,
      "▁consult": 6714,
      "▁ring": 6715,
      "不好": 6716,
      "▁putting": 6717,
      "最大": 6718,
      "▁weather": 6719,
      "\\\\|": 6720,
      "dule": 6721,
      "▁thousands": 6722,
      "▁pieces": 6723,
      "▁significantly": 6724,
      "ini": 6725,
      "small": 6726,
      "▁therm": 6727,
      "组成": 6728,
      "▁relation": 6729,
      "rie": 6730,
      "ulf": 6731,
      "uy": 6732,
      "人生": 6733,
      "从而": 6734,
      "arian": 6735,
      "▁tun": 6736,
      "nAbout": 6737,
      "▁shock": 6738,
      "onic": 6739,
      "▁battle": 6740,
      "▁attend": 6741,
      "▁Sub": 6742,
      "icious": 6743,
      "▁decide": 6744,
      "▁relatively": 6745,
      "▁polic": 6746,
      "▁pray": 6747,
      "满足": 6748,
      "儿童": 6749,
      "▁mur": 6750,
      "情绪": 6751,
      "Not": 6752,
      "母亲": 6753,
      "▁partner": 6754,
      "owl": 6755,
      "ULL": 6756,
      "▁considering": 6757,
      "▁thick": 6758,
      "EE": 6759,
      "就可以": 6760,
      "▁worry": 6761,
      "再次": 6762,
      "▁estimate": 6763,
      "▁column": 6764,
      "▁https": 6765,
      "▁rich": 6766,
      "幼儿": 6767,
      "okes": 6768,
      "▁worse": 6769,
      "▁monitor": 6770,
      "▁mut": 6771,
      "▁opportunities": 6772,
      "三个": 6773,
      "它们": 6774,
      "▁massive": 6775,
      "▁Research": 6776,
      "oom": 6777,
      "▁exchange": 6778,
      "▁forces": 6779,
      "▁interface": 6780,
      "机制": 6781,
      "▁patient": 6782,
      "办公": 6783,
      "▁influence": 6784,
      "▁seconds": 6785,
      "▁entertain": 6786,
      "▁uncertain": 6787,
      "▁cos": 6788,
      "tag": 6789,
      "▁odd": 6790,
      "▁accuracy": 6791,
      "display": 6792,
      "▁root": 6793,
      "▁ok": 6794,
      "重要的": 6795,
      "▁totally": 6796,
      "istan": 6797,
      "▁freedom": 6798,
      "ona": 6799,
      "bert": 6800,
      "▁earth": 6801,
      "▁ра": 6802,
      "▁&=": 6803,
      "▁bag": 6804,
      "实验": 6805,
      "发明": 6806,
      "▁settings": 6807,
      "心的": 6808,
      "nwe": 6809,
      "nel": 6810,
      "找到": 6811,
      "eds": 6812,
      "api": 6813,
      "▁concent": 6814,
      "▁illustr": 6815,
      "den": 6816,
      "▁Free": 6817,
      "▁describe": 6818,
      "etime": 6819,
      "感情": 6820,
      "produ": 6821,
      "▁regions": 6822,
      "\\\\{": 6823,
      "当地": 6824,
      "uls": 6825,
      "突然": 6826,
      "▁journal": 6827,
      "parent": 6828,
      "的发展": 6829,
      "ords": 6830,
      "▁appe": 6831,
      "▁identify": 6832,
      "人类": 6833,
      "approx": 6834,
      "通知": 6835,
      "▁resulting": 6836,
      "▁Chinese": 6837,
      "▁Data": 6838,
      "▁cars": 6839,
      "让我": 6840,
      "iliar": 6841,
      "不足": 6842,
      "▁tests": 6843,
      "ented": 6844,
      "曾经": 6845,
      "▁rise": 6846,
      "▁Flor": 6847,
      "医生": 6848,
      "▁variables": 6849,
      "std": 6850,
      "ston": 6851,
      "vspace": 6852,
      "▁info": 6853,
      "pc": 6854,
      "nch": 6855,
      "▁extract": 6856,
      "自我": 6857,
      "▁plane": 6858,
      "▁none": 6859,
      "▁fab": 6860,
      "▁mission": 6861,
      "▁legis": 6862,
      "▁launch": 6863,
      "▁opened": 6864,
      "open": 6865,
      "▁nav": 6866,
      "▁у": 6867,
      "▁possibly": 6868,
      "▁Techn": 6869,
      "inding": 6870,
[...]
